
#include "network_data.h"

const ant_ml_ptr ant_ml_network_data_weights_get (void)
{
  ANT_ML_ALIGNED(8) static const __attribute__ ((section(".nn_weights"))) uint8_t s_network_weights[] = {
// "p0": 
	0xB8, 0xFF, 
// "p1": 
	0x40, 0x00, 0xEA, 0xFF, 0xF4, 0xFF, 0x98, 0xFF, 0x7F, 0x00, 0x97, 0xFF, 
	0xFD, 0xFF, 0xF0, 0xFF, 0x9B, 0xFF, 0x81, 0xFF, 0x7F, 0x00, 0x7F, 0x00, 
	0x08, 0x00, 0xC0, 0xFF, 0x8D, 0xFF, 0x91, 0xFF, 0x45, 0x00, 0x91, 0xFF, 
	0xE2, 0xFF, 0xDE, 0xFF, 0x94, 0xFF, 0x0C, 0x00, 0x75, 0x00, 0x5C, 0x00, 
	0x1E, 0x00, 0xF0, 0xFF, 0x81, 0xFF, 0xFD, 0xFF, 0x3B, 0x00, 0xFA, 0xFF, 
	0xE3, 0xFF, 0xF8, 0xFF, 0xFB, 0xFF, 0x9A, 0xFF, 0x00, 0x00, 0xF3, 0xFF, 
	0x7F, 0x00, 0xCC, 0xFF, 0xF8, 0xFF, 0x85, 0xFF, 0x71, 0x00, 0x84, 0xFF, 
	0xBE, 0xFF, 0xB5, 0xFF, 0x85, 0xFF, 0xC2, 0xFF, 0x58, 0x00, 0x7C, 0x00, 
	0x13, 0x00, 0x81, 0xFF, 0xC5, 0xFF, 0x81, 0xFF, 0x55, 0x00, 0x81, 0xFF, 
	0x81, 0xFF, 0x81, 0xFF, 0x81, 0xFF, 0xBD, 0xFF, 0x79, 0x00, 0x3E, 0x00, 
	0xF7, 0xFF, 0xD6, 0xFF, 0xBC, 0xFF, 0xF4, 0xFF, 0x25, 0x00, 0xF3, 0xFF, 
	0xD4, 0xFF, 0xE0, 0xFF, 0xF2, 0xFF, 0x20, 0x00, 0x07, 0x00, 0xE4, 0xFF, 
	0x11, 0x00, 0xE0, 0xFF, 0xFC, 0xFF, 0xF7, 0xFF, 0x38, 0x00, 0xF6, 0xFF, 
	0xF3, 0xFF, 0xDD, 0xFF, 0xF6, 0xFF, 0xC8, 0xFF, 0x48, 0x00, 0x4F, 0x00, 
	0xFE, 0xFF, 0xE2, 0xFF, 0xED, 0xFF, 0xF8, 0xFF, 0x38, 0x00, 0xF7, 0xFF, 
	0xD1, 0xFF, 0xE0, 0xFF, 0xF6, 0xFF, 0xBD, 0xFF, 0x62, 0x00, 0x5B, 0x00, 
	0xFB, 0xFF, 0xD9, 0xFF, 0xEA, 0xFF, 0xFC, 0xFF, 0x0F, 0x00, 0xFA, 0xFF, 
	0x02, 0x00, 0xF3, 0xFF, 0xFC, 0xFF, 0x01, 0x00, 0xEA, 0xFF, 0x00, 0x00, 
	
// "p10": 
	0x00, 0x00, 0x00, 0x00, 0x00, 0x00, 0x87, 0x6D, 0x3F, 0x41, 0x00, 0x00, 
	0x00, 0x00, 0x32, 0xCC, 0xDC, 0x4C, 0x00, 0x00, 0x00, 0x00, 0x6D, 0x02, 
	0x49, 0x58, 0x00, 0x00, 0x00, 0x00, 0x0F, 0x2A, 0x7F, 0x52, 0x00, 0x00, 
	0x00, 0x00, 
// "p100": 
	0x00, 0x00, 0x00, 0x00, 0x20, 0x00, 0x00, 0x00, 0x00, 0x00, 0x00, 0x00, 
	0x10, 0x00, 0x00, 0x00, 0x00, 0x00, 0x00, 0x00, 0x20, 0x00, 0x00, 0x00, 
	0x00, 0x00, 0x00, 0x00, 0x10, 0x00, 0x00, 0x00, 0x00, 0x00, 0x00, 0x00, 
	0x20, 0x00, 0x00, 0x00, 0x00, 0x00, 0x00, 0x00, 0x20, 0x00, 0x00, 0x00, 
	0x00, 0x00, 0x00, 0x00, 0x10, 0x00, 0x00, 0x00, 0x00, 0x00, 0x00, 0x00, 
	0x20, 0x00, 0x00, 0x00, 0x00, 0x00, 0x00, 0x00, 0x10, 0x00, 0x00, 0x00, 
	0x00, 0x00, 0x00, 0x00, 0x10, 0x00, 0x00, 0x00, 0x00, 0x00, 0x00, 0x00, 
	0x20, 0x00, 0x00, 0x00, 0x00, 0x00, 0x00, 0x00, 0x10, 0x00, 0x00, 0x00, 
	0x00, 0x00, 0x00, 0x00, 0x10, 0x00, 0x00, 0x00, 0x00, 0x00, 0x00, 0x00, 
	0x20, 0x00, 0x00, 0x00, 0x00, 0x00, 0x00, 0x00, 0x20, 0x00, 0x00, 0x00, 
	0x00, 0x00, 0x00, 0x00, 0x10, 0x00, 0x00, 0x00, 0x00, 0x00, 0x00, 0x00, 
	0x10, 0x00, 0x00, 0x00, 0x00, 0x00, 0x00, 0x00, 0x10, 0x00, 0x00, 0x00, 
	0x00, 0x00, 0x00, 0x00, 0x20, 0x00, 0x00, 0x00, 0x00, 0x00, 0x00, 0x00, 
	0x20, 0x00, 0x00, 0x00, 0x00, 0x00, 0x00, 0x00, 0x20, 0x00, 0x00, 0x00, 
	0x00, 0x00, 0x00, 0x00, 0x10, 0x00, 0x00, 0x00, 0x00, 0x00, 0x00, 0x00, 
	0x10, 0x00, 0x00, 0x00, 0x00, 0x00, 0x00, 0x00, 0x20, 0x00, 0x00, 0x00, 
	0x00, 0x00, 0x00, 0x00, 0x10, 0x00, 0x00, 0x00, 0x00, 0x00, 0x00, 0x00, 
	0x20, 0x00, 0x00, 0x00, 0x00, 0x00, 0x00, 0x00, 0x10, 0x00, 0x00, 0x00, 
	0x00, 0x00, 0x00, 0x00, 0x20, 0x00, 0x00, 0x00, 0x00, 0x00, 0x00, 0x00, 
	0x10, 0x00, 0x00, 0x00, 0x00, 0x00, 0x00, 0x00, 0x20, 0x00, 0x00, 0x00, 
	0x00, 0x00, 0x00, 0x00, 0x20, 0x00, 0x00, 0x00, 0x00, 0x00, 0x00, 0x00, 
	0x20, 0x00, 0x00, 0x00, 0x00, 0x00, 0x00, 0x00, 0x10, 0x00, 0x00, 0x00, 
	0x00, 0x00, 0x00, 0x00, 0x20, 0x00, 0x00, 0x00, 0x00, 0x00, 0x00, 0x00, 
	0x20, 0x00, 0x00, 0x00, 0x00, 0x00, 0x00, 0x00, 0x10, 0x00, 0x00, 0x00, 
	0x00, 0x00, 0x00, 0x00, 0x10, 0x00, 0x00, 0x00, 0x00, 0x00, 0x00, 0x00, 
	0x20, 0x00, 0x00, 0x00, 0x00, 0x00, 0x00, 0x00, 0x40, 0x00, 0x00, 0x00, 
	0x00, 0x00, 0x00, 0x00, 0x10, 0x00, 0x00, 0x00, 0x00, 0x00, 0x00, 0x00, 
	0x10, 0x00, 0x00, 0x00, 0x00, 0x00, 0x00, 0x00, 0x10, 0x00, 0x00, 0x00, 
	0x00, 0x00, 0x00, 0x00, 0x20, 0x00, 0x00, 0x00, 0x00, 0x00, 0x00, 0x00, 
	0x10, 0x00, 0x00, 0x00, 0x00, 0x00, 0x00, 0x00, 0x20, 0x00, 0x00, 0x00, 
	0x00, 0x00, 0x00, 0x00, 0x20, 0x00, 0x00, 0x00, 0x00, 0x00, 0x00, 0x00, 
	0x20, 0x00, 0x00, 0x00, 0x00, 0x00, 0x00, 0x00, 0x10, 0x00, 0x00, 0x00, 
	0x00, 0x00, 0x00, 0x00, 0x10, 0x00, 0x00, 0x00, 0x00, 0x00, 0x00, 0x00, 
	0x10, 0x00, 0x00, 0x00, 0x00, 0x00, 0x00, 0x00, 0x10, 0x00, 0x00, 0x00, 
	0x00, 0x00, 0x00, 0x00, 0x20, 0x00, 0x00, 0x00, 0x00, 0x00, 0x00, 0x00, 
	0x10, 0x00, 0x00, 0x00, 0x00, 0x00, 0x00, 0x00, 0x20, 0x00, 0x00, 0x00, 
	0x00, 0x00, 0x00, 0x00, 0x20, 0x00, 0x00, 0x00, 0x00, 0x00, 0x00, 0x00, 
	0x10, 0x00, 0x00, 0x00, 0x00, 0x00, 0x00, 0x00, 0x80, 0x00, 0x00, 0x00, 
	0x00, 0x00, 0x00, 0x00, 0x10, 0x00, 0x00, 0x00, 0x00, 0x00, 0x00, 0x00, 
	0x10, 0x00, 0x00, 0x00, 0x00, 0x00, 0x00, 0x00, 0x10, 0x00, 0x00, 0x00, 
	0x00, 0x00, 0x00, 0x00, 0x10, 0x00, 0x00, 0x00, 0x00, 0x00, 0x00, 0x00, 
	0x20, 0x00, 0x00, 0x00, 0x00, 0x00, 0x00, 0x00, 0x20, 0x00, 0x00, 0x00, 
	0x00, 0x00, 0x00, 0x00, 0x10, 0x00, 0x00, 0x00, 0x00, 0x00, 0x00, 0x00, 
	0x20, 0x00, 0x00, 0x00, 0x00, 0x00, 0x00, 0x00, 0x20, 0x00, 0x00, 0x00, 
	0x00, 0x00, 0x00, 0x00, 0x20, 0x00, 0x00, 0x00, 0x00, 0x00, 0x00, 0x00, 
	0x20, 0x00, 0x00, 0x00, 0x00, 0x00, 0x00, 0x00, 0x10, 0x00, 0x00, 0x00, 
	0x00, 0x00, 0x00, 0x00, 0x20, 0x00, 0x00, 0x00, 0x00, 0x00, 0x00, 0x00, 
	0x10, 0x00, 0x00, 0x00, 0x00, 0x00, 0x00, 0x00, 0x10, 0x00, 0x00, 0x00, 
	0x00, 0x00, 0x00, 0x00, 0x10, 0x00, 0x00, 0x00, 0x00, 0x00, 0x00, 0x00, 
	0x10, 0x00, 0x00, 0x00, 0x00, 0x00, 0x00, 0x00, 0x10, 0x00, 0x00, 0x00, 
	0x00, 0x00, 0x00, 0x00, 0x20, 0x00, 0x00, 0x00, 0x00, 0x00, 0x00, 0x00, 
	0x10, 0x00, 0x00, 0x00, 0x00, 0x00, 0x00, 0x00, 0x10, 0x00, 0x00, 0x00, 
	0x00, 0x00, 0x00, 0x00, 0x20, 0x00, 0x00, 0x00, 0x00, 0x00, 0x00, 0x00, 
	0x20, 0x00, 0x00, 0x00, 0x00, 0x00, 0x00, 0x00, 0x20, 0x00, 0x00, 0x00, 
	0x00, 0x00, 0x00, 0x00, 0x10, 0x00, 0x00, 0x00, 0x00, 0x00, 0x00, 0x00, 
	0x20, 0x00, 0x00, 0x00, 0x00, 0x00, 0x00, 0x00, 0x20, 0x00, 0x00, 0x00, 
	0x00, 0x00, 0x00, 0x00, 0x10, 0x00, 0x00, 0x00, 0x00, 0x00, 0x00, 0x00, 
	0x20, 0x00, 0x00, 0x00, 0x00, 0x00, 0x00, 0x00, 0x20, 0x00, 0x00, 0x00, 
	0x00, 0x00, 0x00, 0x00, 0x10, 0x00, 0x00, 0x00, 0x00, 0x00, 0x00, 0x00, 
	0x20, 0x00, 0x00, 0x00, 0x00, 0x00, 0x00, 0x00, 0x10, 0x00, 0x00, 0x00, 
	0x00, 0x00, 0x00, 0x00, 0x20, 0x00, 0x00, 0x00, 0x00, 0x00, 0x00, 0x00, 
	0x20, 0x00, 0x00, 0x00, 0x00, 0x00, 0x00, 0x00, 0x10, 0x00, 0x00, 0x00, 
	0x00, 0x00, 0x00, 0x00, 0x10, 0x00, 0x00, 0x00, 0x00, 0x00, 0x00, 0x00, 
	0x20, 0x00, 0x00, 0x00, 0x00, 0x00, 0x00, 0x00, 0x10, 0x00, 0x00, 0x00, 
	0x00, 0x00, 0x00, 0x00, 0x20, 0x00, 0x00, 0x00, 0x00, 0x00, 0x00, 0x00, 
	0x20, 0x00, 0x00, 0x00, 0x00, 0x00, 0x00, 0x00, 0x20, 0x00, 0x00, 0x00, 
	0x00, 0x00, 0x00, 0x00, 0x10, 0x00, 0x00, 0x00, 0x00, 0x00, 0x00, 0x00, 
	0x10, 0x00, 0x00, 0x00, 0x00, 0x00, 0x00, 0x00, 0x10, 0x00, 0x00, 0x00, 
	0x00, 0x00, 0x00, 0x00, 0x20, 0x00, 0x00, 0x00, 0x00, 0x00, 0x00, 0x00, 
	0x20, 0x00, 0x00, 0x00, 0x00, 0x00, 0x00, 0x00, 0x20, 0x00, 0x00, 0x00, 
	0x00, 0x00, 0x00, 0x00, 0x10, 0x00, 0x00, 0x00, 0x00, 0x00, 0x00, 0x00, 
	0x20, 0x00, 0x00, 0x00, 0x00, 0x00, 0x00, 0x00, 0x20, 0x00, 0x00, 0x00, 
	0x00, 0x00, 0x00, 0x00, 0x20, 0x00, 0x00, 0x00, 0x00, 0x00, 0x00, 0x00, 
	0x10, 0x00, 0x00, 0x00, 0x00, 0x00, 0x00, 0x00, 0x80, 0x00, 0x00, 0x00, 
	0x00, 0x00, 0x00, 0x00, 0x10, 0x00, 0x00, 0x00, 0x00, 0x00, 0x00, 0x00, 
	0x20, 0x00, 0x00, 0x00, 0x00, 0x00, 0x00, 0x00, 0x10, 0x00, 0x00, 0x00, 
	0x00, 0x00, 0x00, 0x00, 0x10, 0x00, 0x00, 0x00, 0x00, 0x00, 0x00, 0x00, 
	0x20, 0x00, 0x00, 0x00, 0x00, 0x00, 0x00, 0x00, 0x20, 0x00, 0x00, 0x00, 
	0x00, 0x00, 0x00, 0x00, 0x10, 0x00, 0x00, 0x00, 0x00, 0x00, 0x00, 0x00, 
	0x10, 0x00, 0x00, 0x00, 0x00, 0x00, 0x00, 0x00, 0x10, 0x00, 0x00, 0x00, 
	0x00, 0x00, 0x00, 0x00, 0x20, 0x00, 0x00, 0x00, 0x00, 0x00, 0x00, 0x00, 
	0x20, 0x00, 0x00, 0x00, 0x00, 0x00, 0x00, 0x00, 0x10, 0x00, 0x00, 0x00, 
	0x00, 0x00, 0x00, 0x00, 0x10, 0x00, 0x00, 0x00, 0x00, 0x00, 0x00, 0x00, 
	0x10, 0x00, 0x00, 0x00, 0x00, 0x00, 0x00, 0x00, 0x20, 0x00, 0x00, 0x00, 
	0x00, 0x00, 0x00, 0x00, 0x20, 0x00, 0x00, 0x00, 0x00, 0x00, 0x00, 0x00, 
	0x10, 0x00, 0x00, 0x00, 0x00, 0x00, 0x00, 0x00, 0x20, 0x00, 0x00, 0x00, 
	0x00, 0x00, 0x00, 0x00, 0x10, 0x00, 0x00, 0x00, 0x00, 0x00, 0x00, 0x00, 
	0x10, 0x00, 0x00, 0x00, 0x00, 0x00, 0x00, 0x00, 0x20, 0x00, 0x00, 0x00, 
	0x00, 0x00, 0x00, 0x00, 0x20, 0x00, 0x00, 0x00, 0x00, 0x00, 0x00, 0x00, 
	0x10, 0x00, 0x00, 0x00, 0x00, 0x00, 0x00, 0x00, 0x20, 0x00, 0x00, 0x00, 
	0x00, 0x00, 0x00, 0x00, 0x10, 0x00, 0x00, 0x00, 0x00, 0x00, 0x00, 0x00, 
	0x20, 0x00, 0x00, 0x00, 0x00, 0x00, 0x00, 0x00, 0x10, 0x00, 0x00, 0x00, 
	0x00, 0x00, 0x00, 0x00, 0x20, 0x00, 0x00, 0x00, 0x00, 0x00, 0x00, 0x00, 
	0x20, 0x00, 0x00, 0x00, 0x00, 0x00, 0x00, 0x00, 0x10, 0x00, 0x00, 0x00, 
	0x00, 0x00, 0x00, 0x00, 0x20, 0x00, 0x00, 0x00, 0x00, 0x00, 0x00, 0x00, 
	0x10, 0x00, 0x00, 0x00, 0x00, 0x00, 0x00, 0x00, 0x10, 0x00, 0x00, 0x00, 
	0x00, 0x00, 0x00, 0x00, 0x10, 0x00, 0x00, 0x00, 0x00, 0x00, 0x00, 0x00, 
	0x20, 0x00, 0x00, 0x00, 0x00, 0x00, 0x00, 0x00, 0x10, 0x00, 0x00, 0x00, 
	0x00, 0x00, 0x00, 0x00, 0x10, 0x00, 0x00, 0x00, 0x00, 0x00, 0x00, 0x00, 
	0x20, 0x00, 0x00, 0x00, 0x00, 0x00, 0x00, 0x00, 0x40, 0x00, 0x00, 0x00, 
	0x00, 0x00, 0x00, 0x00, 0x20, 0x00, 0x00, 0x00, 0x00, 0x00, 0x00, 0x00, 
	0x20, 0x00, 0x00, 0x00, 
// "p101": 
	0x26, 0x00, 0x00, 0x00, 0x00, 0x00, 0x00, 0x00, 0x25, 0x00, 0x00, 0x00, 
	0x00, 0x00, 0x00, 0x00, 0x26, 0x00, 0x00, 0x00, 0x00, 0x00, 0x00, 0x00, 
	0x25, 0x00, 0x00, 0x00, 0x00, 0x00, 0x00, 0x00, 0x26, 0x00, 0x00, 0x00, 
	0x00, 0x00, 0x00, 0x00, 0x26, 0x00, 0x00, 0x00, 0x00, 0x00, 0x00, 0x00, 
	0x25, 0x00, 0x00, 0x00, 0x00, 0x00, 0x00, 0x00, 0x26, 0x00, 0x00, 0x00, 
	0x00, 0x00, 0x00, 0x00, 0x25, 0x00, 0x00, 0x00, 0x00, 0x00, 0x00, 0x00, 
	0x25, 0x00, 0x00, 0x00, 0x00, 0x00, 0x00, 0x00, 0x26, 0x00, 0x00, 0x00, 
	0x00, 0x00, 0x00, 0x00, 0x25, 0x00, 0x00, 0x00, 0x00, 0x00, 0x00, 0x00, 
	0x25, 0x00, 0x00, 0x00, 0x00, 0x00, 0x00, 0x00, 0x26, 0x00, 0x00, 0x00, 
	0x00, 0x00, 0x00, 0x00, 0x26, 0x00, 0x00, 0x00, 0x00, 0x00, 0x00, 0x00, 
	0x25, 0x00, 0x00, 0x00, 0x00, 0x00, 0x00, 0x00, 0x25, 0x00, 0x00, 0x00, 
	0x00, 0x00, 0x00, 0x00, 0x25, 0x00, 0x00, 0x00, 0x00, 0x00, 0x00, 0x00, 
	0x26, 0x00, 0x00, 0x00, 0x00, 0x00, 0x00, 0x00, 0x26, 0x00, 0x00, 0x00, 
	0x00, 0x00, 0x00, 0x00, 0x26, 0x00, 0x00, 0x00, 0x00, 0x00, 0x00, 0x00, 
	0x25, 0x00, 0x00, 0x00, 0x00, 0x00, 0x00, 0x00, 0x25, 0x00, 0x00, 0x00, 
	0x00, 0x00, 0x00, 0x00, 0x26, 0x00, 0x00, 0x00, 0x00, 0x00, 0x00, 0x00, 
	0x25, 0x00, 0x00, 0x00, 0x00, 0x00, 0x00, 0x00, 0x26, 0x00, 0x00, 0x00, 
	0x00, 0x00, 0x00, 0x00, 0x25, 0x00, 0x00, 0x00, 0x00, 0x00, 0x00, 0x00, 
	0x26, 0x00, 0x00, 0x00, 0x00, 0x00, 0x00, 0x00, 0x25, 0x00, 0x00, 0x00, 
	0x00, 0x00, 0x00, 0x00, 0x26, 0x00, 0x00, 0x00, 0x00, 0x00, 0x00, 0x00, 
	0x26, 0x00, 0x00, 0x00, 0x00, 0x00, 0x00, 0x00, 0x26, 0x00, 0x00, 0x00, 
	0x00, 0x00, 0x00, 0x00, 0x25, 0x00, 0x00, 0x00, 0x00, 0x00, 0x00, 0x00, 
	0x26, 0x00, 0x00, 0x00, 0x00, 0x00, 0x00, 0x00, 0x26, 0x00, 0x00, 0x00, 
	0x00, 0x00, 0x00, 0x00, 0x25, 0x00, 0x00, 0x00, 0x00, 0x00, 0x00, 0x00, 
	0x25, 0x00, 0x00, 0x00, 0x00, 0x00, 0x00, 0x00, 0x26, 0x00, 0x00, 0x00, 
	0x00, 0x00, 0x00, 0x00, 0x27, 0x00, 0x00, 0x00, 0x00, 0x00, 0x00, 0x00, 
	0x25, 0x00, 0x00, 0x00, 0x00, 0x00, 0x00, 0x00, 0x25, 0x00, 0x00, 0x00, 
	0x00, 0x00, 0x00, 0x00, 0x25, 0x00, 0x00, 0x00, 0x00, 0x00, 0x00, 0x00, 
	0x26, 0x00, 0x00, 0x00, 0x00, 0x00, 0x00, 0x00, 0x25, 0x00, 0x00, 0x00, 
	0x00, 0x00, 0x00, 0x00, 0x26, 0x00, 0x00, 0x00, 0x00, 0x00, 0x00, 0x00, 
	0x26, 0x00, 0x00, 0x00, 0x00, 0x00, 0x00, 0x00, 0x26, 0x00, 0x00, 0x00, 
	0x00, 0x00, 0x00, 0x00, 0x25, 0x00, 0x00, 0x00, 0x00, 0x00, 0x00, 0x00, 
	0x25, 0x00, 0x00, 0x00, 0x00, 0x00, 0x00, 0x00, 0x25, 0x00, 0x00, 0x00, 
	0x00, 0x00, 0x00, 0x00, 0x25, 0x00, 0x00, 0x00, 0x00, 0x00, 0x00, 0x00, 
	0x26, 0x00, 0x00, 0x00, 0x00, 0x00, 0x00, 0x00, 0x25, 0x00, 0x00, 0x00, 
	0x00, 0x00, 0x00, 0x00, 0x26, 0x00, 0x00, 0x00, 0x00, 0x00, 0x00, 0x00, 
	0x26, 0x00, 0x00, 0x00, 0x00, 0x00, 0x00, 0x00, 0x25, 0x00, 0x00, 0x00, 
	0x00, 0x00, 0x00, 0x00, 0x28, 0x00, 0x00, 0x00, 0x00, 0x00, 0x00, 0x00, 
	0x25, 0x00, 0x00, 0x00, 0x00, 0x00, 0x00, 0x00, 0x25, 0x00, 0x00, 0x00, 
	0x00, 0x00, 0x00, 0x00, 0x25, 0x00, 0x00, 0x00, 0x00, 0x00, 0x00, 0x00, 
	0x25, 0x00, 0x00, 0x00, 0x00, 0x00, 0x00, 0x00, 0x26, 0x00, 0x00, 0x00, 
	0x00, 0x00, 0x00, 0x00, 0x26, 0x00, 0x00, 0x00, 0x00, 0x00, 0x00, 0x00, 
	0x25, 0x00, 0x00, 0x00, 0x00, 0x00, 0x00, 0x00, 0x26, 0x00, 0x00, 0x00, 
	0x00, 0x00, 0x00, 0x00, 0x26, 0x00, 0x00, 0x00, 0x00, 0x00, 0x00, 0x00, 
	0x26, 0x00, 0x00, 0x00, 0x00, 0x00, 0x00, 0x00, 0x26, 0x00, 0x00, 0x00, 
	0x00, 0x00, 0x00, 0x00, 0x25, 0x00, 0x00, 0x00, 0x00, 0x00, 0x00, 0x00, 
	0x26, 0x00, 0x00, 0x00, 0x00, 0x00, 0x00, 0x00, 0x25, 0x00, 0x00, 0x00, 
	0x00, 0x00, 0x00, 0x00, 0x25, 0x00, 0x00, 0x00, 0x00, 0x00, 0x00, 0x00, 
	0x25, 0x00, 0x00, 0x00, 0x00, 0x00, 0x00, 0x00, 0x25, 0x00, 0x00, 0x00, 
	0x00, 0x00, 0x00, 0x00, 0x25, 0x00, 0x00, 0x00, 0x00, 0x00, 0x00, 0x00, 
	0x26, 0x00, 0x00, 0x00, 0x00, 0x00, 0x00, 0x00, 0x25, 0x00, 0x00, 0x00, 
	0x00, 0x00, 0x00, 0x00, 0x25, 0x00, 0x00, 0x00, 0x00, 0x00, 0x00, 0x00, 
	0x26, 0x00, 0x00, 0x00, 0x00, 0x00, 0x00, 0x00, 0x26, 0x00, 0x00, 0x00, 
	0x00, 0x00, 0x00, 0x00, 0x26, 0x00, 0x00, 0x00, 0x00, 0x00, 0x00, 0x00, 
	0x25, 0x00, 0x00, 0x00, 0x00, 0x00, 0x00, 0x00, 0x26, 0x00, 0x00, 0x00, 
	0x00, 0x00, 0x00, 0x00, 0x26, 0x00, 0x00, 0x00, 0x00, 0x00, 0x00, 0x00, 
	0x25, 0x00, 0x00, 0x00, 0x00, 0x00, 0x00, 0x00, 0x26, 0x00, 0x00, 0x00, 
	0x00, 0x00, 0x00, 0x00, 0x26, 0x00, 0x00, 0x00, 0x00, 0x00, 0x00, 0x00, 
	0x25, 0x00, 0x00, 0x00, 0x00, 0x00, 0x00, 0x00, 0x26, 0x00, 0x00, 0x00, 
	0x00, 0x00, 0x00, 0x00, 0x25, 0x00, 0x00, 0x00, 0x00, 0x00, 0x00, 0x00, 
	0x26, 0x00, 0x00, 0x00, 0x00, 0x00, 0x00, 0x00, 0x26, 0x00, 0x00, 0x00, 
	0x00, 0x00, 0x00, 0x00, 0x25, 0x00, 0x00, 0x00, 0x00, 0x00, 0x00, 0x00, 
	0x25, 0x00, 0x00, 0x00, 0x00, 0x00, 0x00, 0x00, 0x26, 0x00, 0x00, 0x00, 
	0x00, 0x00, 0x00, 0x00, 0x25, 0x00, 0x00, 0x00, 0x00, 0x00, 0x00, 0x00, 
	0x26, 0x00, 0x00, 0x00, 0x00, 0x00, 0x00, 0x00, 0x26, 0x00, 0x00, 0x00, 
	0x00, 0x00, 0x00, 0x00, 0x26, 0x00, 0x00, 0x00, 0x00, 0x00, 0x00, 0x00, 
	0x25, 0x00, 0x00, 0x00, 0x00, 0x00, 0x00, 0x00, 0x25, 0x00, 0x00, 0x00, 
	0x00, 0x00, 0x00, 0x00, 0x25, 0x00, 0x00, 0x00, 0x00, 0x00, 0x00, 0x00, 
	0x26, 0x00, 0x00, 0x00, 0x00, 0x00, 0x00, 0x00, 0x26, 0x00, 0x00, 0x00, 
	0x00, 0x00, 0x00, 0x00, 0x26, 0x00, 0x00, 0x00, 0x00, 0x00, 0x00, 0x00, 
	0x25, 0x00, 0x00, 0x00, 0x00, 0x00, 0x00, 0x00, 0x26, 0x00, 0x00, 0x00, 
	0x00, 0x00, 0x00, 0x00, 0x26, 0x00, 0x00, 0x00, 0x00, 0x00, 0x00, 0x00, 
	0x26, 0x00, 0x00, 0x00, 0x00, 0x00, 0x00, 0x00, 0x25, 0x00, 0x00, 0x00, 
	0x00, 0x00, 0x00, 0x00, 0x28, 0x00, 0x00, 0x00, 0x00, 0x00, 0x00, 0x00, 
	0x25, 0x00, 0x00, 0x00, 0x00, 0x00, 0x00, 0x00, 0x26, 0x00, 0x00, 0x00, 
	0x00, 0x00, 0x00, 0x00, 0x25, 0x00, 0x00, 0x00, 0x00, 0x00, 0x00, 0x00, 
	0x25, 0x00, 0x00, 0x00, 0x00, 0x00, 0x00, 0x00, 0x26, 0x00, 0x00, 0x00, 
	0x00, 0x00, 0x00, 0x00, 0x26, 0x00, 0x00, 0x00, 0x00, 0x00, 0x00, 0x00, 
	0x25, 0x00, 0x00, 0x00, 0x00, 0x00, 0x00, 0x00, 0x25, 0x00, 0x00, 0x00, 
	0x00, 0x00, 0x00, 0x00, 0x25, 0x00, 0x00, 0x00, 0x00, 0x00, 0x00, 0x00, 
	0x26, 0x00, 0x00, 0x00, 0x00, 0x00, 0x00, 0x00, 0x26, 0x00, 0x00, 0x00, 
	0x00, 0x00, 0x00, 0x00, 0x25, 0x00, 0x00, 0x00, 0x00, 0x00, 0x00, 0x00, 
	0x25, 0x00, 0x00, 0x00, 0x00, 0x00, 0x00, 0x00, 0x25, 0x00, 0x00, 0x00, 
	0x00, 0x00, 0x00, 0x00, 0x26, 0x00, 0x00, 0x00, 0x00, 0x00, 0x00, 0x00, 
	0x26, 0x00, 0x00, 0x00, 0x00, 0x00, 0x00, 0x00, 0x25, 0x00, 0x00, 0x00, 
	0x00, 0x00, 0x00, 0x00, 0x26, 0x00, 0x00, 0x00, 0x00, 0x00, 0x00, 0x00, 
	0x25, 0x00, 0x00, 0x00, 0x00, 0x00, 0x00, 0x00, 0x25, 0x00, 0x00, 0x00, 
	0x00, 0x00, 0x00, 0x00, 0x26, 0x00, 0x00, 0x00, 0x00, 0x00, 0x00, 0x00, 
	0x26, 0x00, 0x00, 0x00, 0x00, 0x00, 0x00, 0x00, 0x25, 0x00, 0x00, 0x00, 
	0x00, 0x00, 0x00, 0x00, 0x26, 0x00, 0x00, 0x00, 0x00, 0x00, 0x00, 0x00, 
	0x25, 0x00, 0x00, 0x00, 0x00, 0x00, 0x00, 0x00, 0x26, 0x00, 0x00, 0x00, 
	0x00, 0x00, 0x00, 0x00, 0x25, 0x00, 0x00, 0x00, 0x00, 0x00, 0x00, 0x00, 
	0x26, 0x00, 0x00, 0x00, 0x00, 0x00, 0x00, 0x00, 0x26, 0x00, 0x00, 0x00, 
	0x00, 0x00, 0x00, 0x00, 0x25, 0x00, 0x00, 0x00, 0x00, 0x00, 0x00, 0x00, 
	0x26, 0x00, 0x00, 0x00, 0x00, 0x00, 0x00, 0x00, 0x25, 0x00, 0x00, 0x00, 
	0x00, 0x00, 0x00, 0x00, 0x25, 0x00, 0x00, 0x00, 0x00, 0x00, 0x00, 0x00, 
	0x25, 0x00, 0x00, 0x00, 0x00, 0x00, 0x00, 0x00, 0x26, 0x00, 0x00, 0x00, 
	0x00, 0x00, 0x00, 0x00, 0x25, 0x00, 0x00, 0x00, 0x00, 0x00, 0x00, 0x00, 
	0x25, 0x00, 0x00, 0x00, 0x00, 0x00, 0x00, 0x00, 0x26, 0x00, 0x00, 0x00, 
	0x00, 0x00, 0x00, 0x00, 0x27, 0x00, 0x00, 0x00, 0x00, 0x00, 0x00, 0x00, 
	0x26, 0x00, 0x00, 0x00, 0x00, 0x00, 0x00, 0x00, 0x26, 0x00, 0x00, 0x00, 
	0x00, 0x00, 0x00, 0x00, 
// "p102": 
	0x81, 0xFF, 0x1E, 0x00, 0x0F, 0x00, 0x1B, 0x00, 0x0C, 0x00, 0x12, 0x00, 
	0xD3, 0xFF, 0x0E, 0x00, 0xCD, 0xFF, 0xA7, 0xFF, 0xD8, 0xFF, 0xD3, 0xFF, 
	0x93, 0xFF, 0x11, 0x00, 0xD3, 0xFF, 0xC1, 0xFF, 0x73, 0x00, 0xF1, 0xFF, 
	0x01, 0x00, 0xBC, 0xFF, 0xB9, 0xFF, 0xFF, 0xFF, 0xD0, 0xFF, 0xAC, 0xFF, 
	0x0A, 0x00, 0x20, 0x00, 0x6C, 0x00, 0xEC, 0xFF, 0xFB, 0xFF, 0x81, 0xFF, 
	0xD4, 0xFF, 0x45, 0x00, 0x56, 0x00, 0x29, 0x00, 0xDA, 0xFF, 0xF1, 0xFF, 
	0x03, 0x00, 0xC1, 0xFF, 0x2B, 0x00, 0xF9, 0xFF, 0x2E, 0x00, 0x01, 0x00, 
	0x59, 0x00, 0xB8, 0xFF, 0xF7, 0xFF, 0x5E, 0x00, 0x81, 0xFF, 0xCC, 0xFF, 
	0x52, 0x00, 0x7F, 0x00, 0x0E, 0x00, 0x90, 0xFF, 0x12, 0x00, 0x50, 0x00, 
	0xC4, 0xFF, 0xCE, 0xFF, 0xEA, 0xFF, 0x7F, 0x00, 0xDB, 0xFF, 0xFD, 0xFF, 
	0x7E, 0x00, 0x64, 0x00, 0x22, 0x00, 0x11, 0x00, 0x41, 0x00, 0xC5, 0xFF, 
	0xAD, 0xFF, 0xE2, 0xFF, 0x0B, 0x00, 0x10, 0x00, 0xEA, 0xFF, 0x15, 0x00, 
	0x63, 0x00, 0x7F, 0x00, 0x7F, 0x00, 0xFF, 0xFF, 0xFF, 0xFF, 0xEA, 0xFF, 
	0xA0, 0xFF, 0xC4, 0xFF, 0xF5, 0xFF, 0xEB, 0xFF, 0xF9, 0xFF, 0x66, 0x00, 
	0xEE, 0xFF, 0xF5, 0xFF, 0xE7, 0xFF, 0xF0, 0xFF, 0xFB, 0xFF, 0xE7, 0xFF, 
	0x05, 0x00, 0xDA, 0xFF, 0x17, 0x00, 0xC7, 0xFF, 0x4F, 0x00, 0xE4, 0xFF, 
	0x36, 0x00, 0xF5, 0xFF, 0xD4, 0xFF, 0x7F, 0x00, 0xA0, 0xFF, 0xD2, 0xFF, 
	0x38, 0x00, 0x04, 0x00, 0x81, 0xFF, 0xC8, 0xFF, 0xDD, 0xFF, 0xF0, 0xFF, 
	0x09, 0x00, 0xD9, 0xFF, 0x00, 0x00, 0xC2, 0xFF, 0xE1, 0xFF, 0x11, 0x00, 
	0xC2, 0xFF, 0xE6, 0xFF, 0xEA, 0xFF, 0x28, 0x00, 0x3F, 0x00, 0xE8, 0xFF, 
	0xDB, 0xFF, 0x27, 0x00, 0xC4, 0xFF, 0x18, 0x00, 0xA1, 0xFF, 0x07, 0x00, 
	0xA9, 0xFF, 0xBE, 0xFF, 0xDF, 0xFF, 0xAE, 0xFF, 0xD6, 0xFF, 0xF9, 0xFF, 
	0x46, 0x00, 0x65, 0x00, 0xE1, 0xFF, 0x81, 0xFF, 0xD8, 0xFF, 0xEF, 0xFF, 
	0x18, 0x00, 0xD9, 0xFF, 0x4E, 0x00, 0xE7, 0xFF, 0x14, 0x00, 0x7F, 0x00, 
	0xFD, 0xFF, 0xA2, 0xFF, 0x81, 0xFF, 0xF2, 0xFF, 0xAF, 0xFF, 0x7F, 0x00, 
	0xF7, 0xFF, 0xB6, 0xFF, 0x13, 0x00, 0x52, 0x00, 0x7F, 0x00, 0x3F, 0x00, 
	0xFA, 0xFF, 0xE6, 0xFF, 0xB4, 0xFF, 0xF3, 0xFF, 0x00, 0x00, 0x7F, 0x00, 
	0x8E, 0xFF, 0x04, 0x00, 0xC6, 0xFF, 0x7F, 0x00, 0xC8, 0xFF, 0x81, 0xFF, 
	0x40, 0x00, 0xA0, 0xFF, 0x4D, 0x00, 0xA3, 0xFF, 0x7F, 0x00, 0x7F, 0x00, 
	0x88, 0xFF, 0xBE, 0xFF, 0x36, 0x00, 0x70, 0x00, 0xB1, 0xFF, 0xA3, 0xFF, 
	0x81, 0xFF, 0x04, 0x00, 0xBC, 0xFF, 0x31, 0x00, 0x7F, 0x00, 0x7F, 0x00, 
	0x10, 0x00, 0xCF, 0xFF, 0x7B, 0x00, 0x00, 0x00, 0x0B, 0x00, 0xF7, 0xFF, 
	0x64, 0x00, 0x4C, 0x00, 0x58, 0x00, 0xC9, 0xFF, 0x17, 0x00, 0x81, 0xFF, 
	0x08, 0x00, 0xED, 0xFF, 0x56, 0x00, 0x1D, 0x00, 0x7F, 0x00, 0x81, 0xFF, 
	0xD9, 0xFF, 0xD4, 0xFF, 0x81, 0xFF, 0x9D, 0xFF, 0xCB, 0xFF, 0x0A, 0x00, 
	0xC1, 0xFF, 0x96, 0xFF, 0x72, 0x00, 0x35, 0x00, 0xC9, 0xFF, 0xE0, 0xFF, 
	0x81, 0xFF, 0xCB, 0xFF, 0x8B, 0xFF, 0xFC, 0xFF, 0xC3, 0xFF, 0x7F, 0x00, 
	0xD1, 0xFF, 0x9F, 0xFF, 0x03, 0x00, 0x3F, 0x00, 0xE1, 0xFF, 0x5B, 0x00, 
	0x7F, 0x00, 0x0D, 0x00, 0x39, 0x00, 0xE9, 0xFF, 0x1A, 0x00, 0x1B, 0x00, 
	0xA7, 0xFF, 0x7F, 0x00, 0xF2, 0xFF, 0x9B, 0xFF, 0x1F, 0x00, 0x1D, 0x00, 
	0x7F, 0x00, 0x49, 0x00, 0x7F, 0x00, 0x81, 0xFF, 0x61, 0x00, 0xE7, 0xFF, 
	0x32, 0x00, 0x0B, 0x00, 0xCD, 0xFF, 0x0D, 0x00, 0xA1, 0xFF, 0xD8, 0xFF, 
	0x81, 0xFF, 0xBE, 0xFF, 0x40, 0x00, 0x7F, 0x00, 0xCD, 0xFF, 0x74, 0x00, 
	0x66, 0x00, 0xC2, 0xFF, 0x1F, 0x00, 0xB7, 0xFF, 0x7F, 0x00, 0x99, 0xFF, 
	0x85, 0xFF, 0x67, 0x00, 0xE5, 0xFF, 0x9B, 0xFF, 0xEE, 0xFF, 0x7F, 0x00, 
	0x3D, 0x00, 0xF5, 0xFF, 0xC2, 0xFF, 0x33, 0x00, 0x90, 0xFF, 0xBE, 0xFF, 
	0xB0, 0xFF, 0x0D, 0x00, 0x7F, 0x00, 0xB5, 0xFF, 0x55, 0x00, 0x85, 0xFF, 
	0x72, 0x00, 0xD5, 0xFF, 0x1E, 0x00, 0x41, 0x00, 0xCD, 0xFF, 0xC3, 0xFF, 
	0xCA, 0xFF, 0xA1, 0xFF, 0xFB, 0xFF, 0x81, 0xFF, 0xD1, 0xFF, 0x74, 0x00, 
	0x23, 0x00, 0x45, 0x00, 0xF0, 0xFF, 0xC4, 0xFF, 0xAD, 0xFF, 0x25, 0x00, 
	0x22, 0x00, 0xBB, 0xFF, 0x65, 0x00, 0x1F, 0x00, 0xD2, 0xFF, 0x37, 0x00, 
	0x58, 0x00, 0xED, 0xFF, 0xE4, 0xFF, 0x5E, 0x00, 0x9B, 0xFF, 0xF6, 0xFF, 
	0xBC, 0xFF, 0x85, 0xFF, 0xEF, 0xFF, 0x41, 0x00, 0xB2, 0xFF, 0x4C, 0x00, 
	0xDE, 0xFF, 0x9C, 0xFF, 0x81, 0xFF, 0xE4, 0xFF, 0xE9, 0xFF, 0x7F, 0x00, 
	0xBB, 0xFF, 0xC0, 0xFF, 0xAF, 0xFF, 0x7F, 0x00, 0xDC, 0xFF, 0x07, 0x00, 
	0x81, 0xFF, 0xC2, 0xFF, 0xDA, 0xFF, 0x33, 0x00, 0xC8, 0xFF, 0x36, 0x00, 
	0x63, 0x00, 0x20, 0x00, 0xDF, 0xFF, 0xDD, 0xFF, 0x11, 0x00, 0xE5, 0xFF, 
	0x9A, 0xFF, 0x21, 0x00, 0xCC, 0xFF, 0x18, 0x00, 0xFF, 0xFF, 0xB9, 0xFF, 
	0x12, 0x00, 0xD1, 0xFF, 0x47, 0x00, 0x32, 0x00, 0x59, 0x00, 0x31, 0x00, 
	0x1C, 0x00, 0xCF, 0xFF, 0xDB, 0xFF, 0xCE, 0xFF, 0x9C, 0xFF, 0xE0, 0xFF, 
	0xEF, 0xFF, 0x71, 0x00, 0xFC, 0xFF, 0x85, 0xFF, 0x57, 0x00, 0xC0, 0xFF, 
	0xF7, 0xFF, 0x48, 0x00, 0xE1, 0xFF, 0xD9, 0xFF, 0x7F, 0x00, 0xEE, 0xFF, 
	0xAA, 0xFF, 0x20, 0x00, 0x0E, 0x00, 0x34, 0x00, 0x7F, 0x00, 0xC7, 0xFF, 
	0xEA, 0xFF, 0xD0, 0xFF, 0xDB, 0xFF, 0xF0, 0xFF, 0xC3, 0xFF, 0x7F, 0x00, 
	0x03, 0x00, 0xFC, 0xFF, 0x7F, 0x00, 0x55, 0x00, 0x34, 0x00, 0x88, 0xFF, 
	0x53, 0x00, 0xF4, 0xFF, 0xDC, 0xFF, 0xE9, 0xFF, 0x41, 0x00, 0xE0, 0xFF, 
	0xF0, 0xFF, 0xD1, 0xFF, 0xBE, 0xFF, 0xEB, 0xFF, 0x00, 0x00, 0xE0, 0xFF, 
	0x1B, 0x00, 0x0E, 0x00, 0x81, 0xFF, 0xDD, 0xFF, 0xE0, 0xFF, 0x4C, 0x00, 
	0x9B, 0xFF, 0x41, 0x00, 0xC2, 0xFF, 0x91, 0xFF, 0xE7, 0xFF, 0x97, 0xFF, 
	0x10, 0x00, 0xE7, 0xFF, 0xDB, 0xFF, 0x2F, 0x00, 0xB9, 0xFF, 0x37, 0x00, 
	0xEE, 0xFF, 0x44, 0x00, 0x19, 0x00, 0x0D, 0x00, 0x7F, 0x00, 0x9D, 0xFF, 
	0xCF, 0xFF, 0xF6, 0xFF, 0xC9, 0xFF, 0x08, 0x00, 0xA6, 0xFF, 0xA8, 0xFF, 
	0xAE, 0xFF, 0x81, 0xFF, 0xC3, 0xFF, 0xBC, 0xFF, 0xA1, 0xFF, 0x79, 0x00, 
	0xE3, 0xFF, 0xE7, 0xFF, 0x81, 0xFF, 0x08, 0x00, 0x01, 0x00, 0xBF, 0xFF, 
	0xB3, 0xFF, 0xE9, 0xFF, 0x2E, 0x00, 0xEB, 0xFF, 0x02, 0x00, 0x06, 0x00, 
	0x20, 0x00, 0xF1, 0xFF, 0x00, 0x00, 0xB7, 0xFF, 0xD9, 0xFF, 0xFF, 0xFF, 
	0x67, 0x00, 0xEF, 0xFF, 0xE4, 0xFF, 0x64, 0x00, 0x7F, 0x00, 0x22, 0x00, 
	0xC7, 0xFF, 0x7F, 0x00, 0x9B, 0xFF, 0xD1, 0xFF, 0x44, 0x00, 0x04, 0x00, 
	0xBF, 0xFF, 0x2D, 0x00, 0xCF, 0xFF, 0x46, 0x00, 0x30, 0x00, 0x9E, 0xFF, 
	0x81, 0xFF, 0xC6, 0xFF, 0xE4, 0xFF, 0x3C, 0x00, 0xDD, 0xFF, 0xB9, 0xFF, 
	0x0D, 0x00, 0xFF, 0xFF, 0x5A, 0x00, 0x7F, 0x00, 0xB8, 0xFF, 0x93, 0xFF, 
	0xF6, 0xFF, 0x55, 0x00, 0xD4, 0xFF, 0x47, 0x00, 0xA1, 0xFF, 0xD0, 0xFF, 
	0x2E, 0x00, 0xEE, 0xFF, 0x19, 0x00, 0xD4, 0xFF, 0xF9, 0xFF, 0xBF, 0xFF, 
	0x13, 0x00, 0xFE, 0xFF, 0x25, 0x00, 0xD3, 0xFF, 0xD1, 0xFF, 0x89, 0xFF, 
	0x6D, 0x00, 0x2C, 0x00, 0x5A, 0x00, 0x9F, 0xFF, 0x9B, 0xFF, 0x7F, 0x00, 
	0xD7, 0xFF, 0xE7, 0xFF, 0x7F, 0x00, 0x2B, 0x00, 0xC4, 0xFF, 0x7D, 0x00, 
	0x40, 0x00, 0x7F, 0x00, 0x9A, 0xFF, 0x1D, 0x00, 0x34, 0x00, 0x7F, 0x00, 
	0xE7, 0xFF, 0xD4, 0xFF, 0xBD, 0xFF, 0x07, 0x00, 0x03, 0x00, 0xD5, 0xFF, 
	0x3F, 0x00, 0x1B, 0x00, 0xEA, 0xFF, 0xAE, 0xFF, 0xCD, 0xFF, 0xF2, 0xFF, 
	0xC0, 0xFF, 0xF9, 0xFF, 0x0E, 0x00, 0x01, 0x00, 0xF2, 0xFF, 0x65, 0x00, 
	0xAB, 0xFF, 0x87, 0xFF, 0x1F, 0x00, 0xB8, 0xFF, 0xFE, 0xFF, 0xA1, 0xFF, 
	0xF1, 0xFF, 0x39, 0x00, 0xC3, 0xFF, 0x6E, 0x00, 0x61, 0x00, 0x52, 0x00, 
	0xF7, 0xFF, 0x20, 0x00, 0x2A, 0x00, 0x69, 0x00, 0xA5, 0xFF, 0xFD, 0xFF, 
	0x7F, 0x00, 0xE4, 0xFF, 0x42, 0x00, 0xC1, 0xFF, 0xE7, 0xFF, 0x7F, 0x00, 
	0x47, 0x00, 0x93, 0xFF, 0xF3, 0xFF, 0x9D, 0xFF, 0xB1, 0xFF, 0x52, 0x00, 
	0xA7, 0xFF, 0xFC, 0xFF, 0xDF, 0xFF, 0xB1, 0xFF, 0x4D, 0x00, 0xAD, 0xFF, 
	0xBC, 0xFF, 0x29, 0x00, 0x0B, 0x00, 0x7F, 0x00, 0x81, 0xFF, 0x7F, 0x00, 
	0x15, 0x00, 0x0F, 0x00, 0xC6, 0xFF, 0xB2, 0xFF, 0x2F, 0x00, 0x83, 0xFF, 
	0x5B, 0x00, 0x0A, 0x00, 0x1F, 0x00, 0x86, 0xFF, 0xCA, 0xFF, 0xDC, 0xFF, 
	0x81, 0xFF, 0x55, 0x00, 0x7F, 0x00, 0x29, 0x00, 0x22, 0x00, 0x60, 0x00, 
	0x2B, 0x00, 0x39, 0x00, 0xA4, 0xFF, 0xE5, 0xFF, 0x81, 0xFF, 0x9A, 0xFF, 
	0x03, 0x00, 0x3A, 0x00, 0xA0, 0xFF, 0x7F, 0x00, 0xDD, 0xFF, 0x73, 0x00, 
	0xE9, 0xFF, 0xDC, 0xFF, 0xA6, 0xFF, 0xC7, 0xFF, 0x1B, 0x00, 0x48, 0x00, 
	0xED, 0xFF, 0x7F, 0x00, 0x81, 0xFF, 0xD3, 0xFF, 0x81, 0xFF, 0x69, 0x00, 
	0x35, 0x00, 0x1B, 0x00, 0xA0, 0xFF, 0x05, 0x00, 0xEE, 0xFF, 0x3C, 0x00, 
	0x9E, 0xFF, 0x8B, 0xFF, 0x7F, 0x00, 0x28, 0x00, 0x1C, 0x00, 0x6F, 0x00, 
	0x40, 0x00, 0x00, 0x00, 0xCB, 0xFF, 0x7F, 0x00, 0x95, 0xFF, 0x38, 0x00, 
	0x81, 0xFF, 0x14, 0x00, 0x7F, 0x00, 0xC6, 0xFF, 0x28, 0x00, 0x3F, 0x00, 
	0x54, 0x00, 0x30, 0x00, 0x64, 0x00, 0x20, 0x00, 0x44, 0x00, 0xAF, 0xFF, 
	0xC7, 0xFF, 0x81, 0xFF, 0x55, 0x00, 0x8A, 0xFF, 0x55, 0x00, 0xAC, 0xFF, 
	0x2E, 0x00, 0xDE, 0xFF, 0x1E, 0x00, 0xFE, 0xFF, 0x48, 0x00, 0xF6, 0xFF, 
	0xA1, 0xFF, 0xB2, 0xFF, 0xF9, 0xFF, 0x60, 0x00, 0x0B, 0x00, 0xEF, 0xFF, 
	0xC0, 0xFF, 0x23, 0x00, 0xD0, 0xFF, 0xAC, 0xFF, 0xE9, 0xFF, 0x2C, 0x00, 
	0xD3, 0xFF, 0x66, 0x00, 0xEE, 0xFF, 0x5F, 0x00, 0xDE, 0xFF, 0x7F, 0x00, 
	0x4C, 0x00, 0xD5, 0xFF, 0xF1, 0xFF, 0xFD, 0xFF, 0x3A, 0x00, 0xD7, 0xFF, 
	0xD8, 0xFF, 0x64, 0x00, 0xD5, 0xFF, 0x8A, 0xFF, 0x7F, 0x00, 0x7F, 0x00, 
	0x3B, 0x00, 0x7F, 0x00, 0x76, 0x00, 0x77, 0x00, 0x10, 0x00, 0x7F, 0x00, 
	0xFB, 0xFF, 0x7F, 0x00, 0x81, 0xFF, 0x2F, 0x00, 0x7F, 0x00, 0x82, 0xFF, 
	0xDF, 0xFF, 0x7F, 0x00, 0xBC, 0xFF, 0xBB, 0xFF, 0x31, 0x00, 0x1B, 0x00, 
	0x88, 0xFF, 0x99, 0xFF, 0x7F, 0x00, 0xB3, 0xFF, 0x4F, 0x00, 0xD3, 0xFF, 
	0xA5, 0xFF, 0x7F, 0x00, 0x2F, 0x00, 0xA5, 0xFF, 0xAD, 0xFF, 0xAB, 0xFF, 
	0x7F, 0x00, 0x7F, 0x00, 0xA9, 0xFF, 0xAB, 0xFF, 0x37, 0x00, 0xB9, 0xFF, 
	0xAD, 0xFF, 0x35, 0x00, 0x22, 0x00, 0xE1, 0xFF, 0x7F, 0x00, 0x81, 0xFF, 
	0x7F, 0x00, 0xA9, 0xFF, 0x08, 0x00, 0x7F, 0x00, 0x02, 0x00, 0x97, 0xFF, 
	0xB9, 0xFF, 0x7F, 0x00, 0xE8, 0xFF, 0x76, 0x00, 0x47, 0x00, 0x0E, 0x00, 
	0x6D, 0x00, 0x15, 0x00, 0x0E, 0x00, 0x1B, 0x00, 0xA0, 0xFF, 0x5F, 0x00, 
	0x64, 0x00, 0x61, 0x00, 0x7F, 0x00, 0xEE, 0xFF, 0x0A, 0x00, 0x31, 0x00, 
	0xBF, 0xFF, 0x27, 0x00, 0x98, 0xFF, 0x6F, 0x00, 0xBA, 0xFF, 0xB4, 0xFF, 
	0xB2, 0xFF, 0xEB, 0xFF, 0x36, 0x00, 0x2B, 0x00, 0xB1, 0xFF, 0xF7, 0xFF, 
	0xBF, 0xFF, 0x6F, 0x00, 0xAF, 0xFF, 0xB8, 0xFF, 0xA6, 0xFF, 0xF7, 0xFF, 
	0xF2, 0xFF, 0xAF, 0xFF, 0xF3, 0xFF, 0x42, 0x00, 0x08, 0x00, 0xFB, 0xFF, 
	0x08, 0x00, 0x4F, 0x00, 0x96, 0xFF, 0x7F, 0x00, 0xD8, 0xFF, 0x2A, 0x00, 
	0x93, 0xFF, 0x3F, 0x00, 0xAA, 0xFF, 0xC8, 0xFF, 0x45, 0x00, 0xED, 0xFF, 
	0xF2, 0xFF, 0x7F, 0x00, 0xB6, 0xFF, 0xDE, 0xFF, 0x66, 0x00, 0xEE, 0xFF, 
	0x1D, 0x00, 0xA8, 0xFF, 0x75, 0x00, 0xCD, 0xFF, 0x7F, 0x00, 0xE6, 0xFF, 
	0x2F, 0x00, 0xE6, 0xFF, 0x7F, 0x00, 0xA9, 0xFF, 0x1D, 0x00, 0xEC, 0xFF, 
	0x75, 0x00, 0x19, 0x00, 0x20, 0x00, 0x81, 0xFF, 0x6F, 0x00, 0x9C, 0xFF, 
	0x7F, 0x00, 0xEA, 0xFF, 0xB0, 0xFF, 0x5B, 0x00, 0x70, 0x00, 0xDA, 0xFF, 
	0xAE, 0xFF, 0xF0, 0xFF, 0xF7, 0xFF, 0xD0, 0xFF, 0x16, 0x00, 0x1A, 0x00, 
	0xF1, 0xFF, 0x3A, 0x00, 0x07, 0x00, 0x08, 0x00, 0xD1, 0xFF, 0x0B, 0x00, 
	0x00, 0x00, 0xDE, 0xFF, 0x4E, 0x00, 0x01, 0x00, 0x7F, 0x00, 0x81, 0xFF, 
	0x62, 0x00, 0xDD, 0xFF, 0x0C, 0x00, 0xA8, 0xFF, 0xEF, 0xFF, 0x4C, 0x00, 
	0xB7, 0xFF, 0x77, 0x00, 0xC4, 0xFF, 0x3C, 0x00, 0x7E, 0x00, 0x18, 0x00, 
	0xD6, 0xFF, 0x0D, 0x00, 0x9A, 0xFF, 0xBD, 0xFF, 0xF4, 0xFF, 0xE3, 0xFF, 
	0x57, 0x00, 0x4A, 0x00, 0xFB, 0xFF, 0xE1, 0xFF, 0x84, 0xFF, 0x81, 0xFF, 
	0x28, 0x00, 0xF3, 0xFF, 0x81, 0xFF, 0xD7, 0xFF, 0x81, 0xFF, 0x72, 0x00, 
	0xF5, 0xFF, 0xFE, 0xFF, 0xF1, 0xFF, 0x5E, 0x00, 0x7B, 0x00, 0x26, 0x00, 
	0xC5, 0xFF, 0xCB, 0xFF, 0xAE, 0xFF, 0x8C, 0xFF, 0xF4, 0xFF, 0x0A, 0x00, 
	0xA6, 0xFF, 0x88, 0xFF, 0x2D, 0x00, 0x81, 0xFF, 0x81, 0xFF, 0x21, 0x00, 
	0xFE, 0xFF, 0x87, 0xFF, 0xA3, 0xFF, 0xD8, 0xFF, 0x96, 0xFF, 0x34, 0x00, 
	0x8B, 0xFF, 0xEC, 0xFF, 0x7F, 0x00, 0xF4, 0xFF, 0x08, 0x00, 0xCB, 0xFF, 
	0x15, 0x00, 0xE2, 0xFF, 0x77, 0x00, 0x13, 0x00, 0x2F, 0x00, 0xDC, 0xFF, 
	0x63, 0x00, 0x18, 0x00, 0xE1, 0xFF, 0xC3, 0xFF, 0x2D, 0x00, 0x78, 0x00, 
	0xD9, 0xFF, 0x18, 0x00, 0x86, 0xFF, 0xEC, 0xFF, 0x43, 0x00, 0xD3, 0xFF, 
	0xE8, 0xFF, 0x50, 0x00, 0xD1, 0xFF, 0x08, 0x00, 0x10, 0x00, 0x06, 0x00, 
	0x84, 0xFF, 0xE6, 0xFF, 0xFB, 0xFF, 0x4D, 0x00, 0xB3, 0xFF, 0xA5, 0xFF, 
	0x6A, 0x00, 0xD1, 0xFF, 0xD7, 0xFF, 0xEB, 0xFF, 0x88, 0xFF, 0xAE, 0xFF, 
	0xA1, 0xFF, 0x31, 0x00, 0x1F, 0x00, 0x90, 0xFF, 0x33, 0x00, 0xC5, 0xFF, 
	0xFD, 0xFF, 0xBB, 0xFF, 0x7F, 0x00, 0xDA, 0xFF, 0xB4, 0xFF, 0xA6, 0xFF, 
	0x7F, 0x00, 0x3B, 0x00, 0x7F, 0x00, 0x99, 0xFF, 0xE1, 0xFF, 0xFC, 0xFF, 
	0x50, 0x00, 0x23, 0x00, 0x0C, 0x00, 0xA5, 0xFF, 0xA9, 0xFF, 0x18, 0x00, 
	0xD3, 0xFF, 0xB3, 0xFF, 0x0A, 0x00, 0x3C, 0x00, 0x04, 0x00, 0xA0, 0xFF, 
	0x31, 0x00, 0xEB, 0xFF, 0x12, 0x00, 0x7F, 0x00, 0x36, 0x00, 0xAA, 0xFF, 
	0x00, 0x00, 0x33, 0x00, 0xBC, 0xFF, 0x27, 0x00, 0x7F, 0x00, 0xD2, 0xFF, 
	0xC4, 0xFF, 0xA2, 0xFF, 0xE0, 0xFF, 0xDF, 0xFF, 0xD7, 0xFF, 0x1E, 0x00, 
	0xD0, 0xFF, 0x04, 0x00, 0x1A, 0x00, 0xED, 0xFF, 0x33, 0x00, 0xA6, 0xFF, 
	0xF0, 0xFF, 0xF7, 0xFF, 0x3E, 0x00, 0x12, 0x00, 0xD5, 0xFF, 0xF4, 0xFF, 
	0xCD, 0xFF, 0x1F, 0x00, 0xC7, 0xFF, 0xEF, 0xFF, 0x81, 0xFF, 0x25, 0x00, 
	0xE1, 0xFF, 0x50, 0x00, 0xF0, 0xFF, 0x2B, 0x00, 0xAD, 0xFF, 0x36, 0x00, 
	0x24, 0x00, 0x08, 0x00, 0x04, 0x00, 0x86, 0xFF, 0x7F, 0x00, 0x2B, 0x00, 
	0x04, 0x00, 0xA5, 0xFF, 0xF1, 0xFF, 0xB3, 0xFF, 0xB3, 0xFF, 0xD5, 0xFF, 
	0xC9, 0xFF, 0x08, 0x00, 0x37, 0x00, 0xE5, 0xFF, 0x58, 0x00, 0x24, 0x00, 
	0xDC, 0xFF, 0xBF, 0xFF, 0x23, 0x00, 0xE8, 0xFF, 0x9C, 0xFF, 0x02, 0x00, 
	0x1E, 0x00, 0x7F, 0x00, 0x31, 0x00, 0xE8, 0xFF, 0x38, 0x00, 0x0B, 0x00, 
	0x2F, 0x00, 0x26, 0x00, 0x1A, 0x00, 0x98, 0xFF, 0xA1, 0xFF, 0xE4, 0xFF, 
	0x14, 0x00, 0xB5, 0xFF, 0xD3, 0xFF, 0xEA, 0xFF, 0x17, 0x00, 0x2B, 0x00, 
	0x7F, 0x00, 0x7F, 0x00, 0xCA, 0xFF, 0xDE, 0xFF, 0xD9, 0xFF, 0xFA, 0xFF, 
	0xCD, 0xFF, 0x7F, 0x00, 0x8F, 0xFF, 0x36, 0x00, 0xE5, 0xFF, 0x7F, 0x00, 
	0xCF, 0xFF, 0x7F, 0x00, 0x81, 0xFF, 0xF5, 0xFF, 0x9F, 0xFF, 0xC0, 0xFF, 
	0x01, 0x00, 0xB7, 0xFF, 0xE2, 0xFF, 0xEE, 0xFF, 0x8E, 0xFF, 0xDD, 0xFF, 
	0x6C, 0x00, 0x7F, 0x00, 0x8C, 0xFF, 0x4E, 0x00, 0xC6, 0xFF, 0x2C, 0x00, 
	0x81, 0xFF, 0xCE, 0xFF, 0x6B, 0x00, 0x81, 0xFF, 0x18, 0x00, 0x27, 0x00, 
	0xD3, 0xFF, 0x1D, 0x00, 0x93, 0xFF, 0x7D, 0x00, 0xF9, 0xFF, 0xB3, 0xFF, 
	0x3F, 0x00, 0x7F, 0x00, 0x4B, 0x00, 0x7F, 0x00, 0x65, 0x00, 0x34, 0x00, 
	0x81, 0xFF, 0x81, 0xFF, 0x79, 0x00, 0x7F, 0x00, 0x17, 0x00, 0xAD, 0xFF, 
	0xB2, 0xFF, 0xD7, 0xFF, 0x05, 0x00, 0x1E, 0x00, 0x7F, 0x00, 0x07, 0x00, 
	0x34, 0x00, 0x2A, 0x00, 0x40, 0x00, 0x81, 0xFF, 0x06, 0x00, 0x3B, 0x00, 
	0x75, 0x00, 0x01, 0x00, 0x7F, 0x00, 0x0C, 0x00, 0xFC, 0xFF, 0x18, 0x00, 
	0xBE, 0xFF, 0xCA, 0xFF, 0x29, 0x00, 0x7F, 0x00, 0x81, 0xFF, 0x15, 0x00, 
	0x0E, 0x00, 0x7F, 0x00, 0xA5, 0xFF, 0xDF, 0xFF, 0xDC, 0xFF, 0x9A, 0xFF, 
	0x5F, 0x00, 0x7F, 0x00, 0x7F, 0x00, 0xF3, 0xFF, 0x7F, 0x00, 0x71, 0x00, 
	0xF2, 0xFF, 0x92, 0xFF, 0xF3, 0xFF, 0xA6, 0xFF, 0x55, 0x00, 0xE1, 0xFF, 
	0x16, 0x00, 0x0B, 0x00, 0x9F, 0xFF, 0xD0, 0xFF, 0x81, 0xFF, 0x1C, 0x00, 
	0xD7, 0xFF, 0x34, 0x00, 0x71, 0x00, 0x7F, 0x00, 0xA5, 0xFF, 0xB2, 0xFF, 
	0xDC, 0xFF, 0x7C, 0x00, 0xCC, 0xFF, 0x5A, 0x00, 0xEC, 0xFF, 0x81, 0xFF, 
	0x26, 0x00, 0xBE, 0xFF, 0x5E, 0x00, 0xD1, 0xFF, 0xE3, 0xFF, 0x81, 0xFF, 
	0x96, 0xFF, 0xCA, 0xFF, 0x25, 0x00, 0xB0, 0xFF, 0x7F, 0x00, 0xC7, 0xFF, 
	0xD6, 0xFF, 0x3A, 0x00, 0x0A, 0x00, 0xD4, 0xFF, 0x7F, 0x00, 0x41, 0x00, 
	0xA9, 0xFF, 0xD6, 0xFF, 0xB6, 0xFF, 0xB6, 0xFF, 0xF2, 0xFF, 0x00, 0x00, 
	0x4D, 0x00, 0x06, 0x00, 0x36, 0x00, 0x16, 0x00, 0x7F, 0x00, 0xAD, 0xFF, 
	0xF2, 0xFF, 0x1D, 0x00, 0xFE, 0xFF, 0xCC, 0xFF, 0x2A, 0x00, 0x81, 0xFF, 
	0x2A, 0x00, 0x20, 0x00, 0x2D, 0x00, 0x7E, 0x00, 0x35, 0x00, 0x81, 0xFF, 
	0x89, 0xFF, 0xD3, 0xFF, 0x0A, 0x00, 0xFF, 0xFF, 0x33, 0x00, 0x06, 0x00, 
	0xD8, 0xFF, 0xEB, 0xFF, 0xFA, 0xFF, 0x79, 0x00, 0xA6, 0xFF, 0xDF, 0xFF, 
	0x81, 0xFF, 0x53, 0x00, 0x7F, 0x00, 0xD3, 0xFF, 0x00, 0x00, 0x2A, 0x00, 
	0xCB, 0xFF, 0x14, 0x00, 0x17, 0x00, 0x14, 0x00, 0xAF, 0xFF, 0xB4, 0xFF, 
	0x5D, 0x00, 0x93, 0xFF, 0xD1, 0xFF, 0x00, 0x00, 0x70, 0x00, 0xC8, 0xFF, 
	0x7C, 0x00, 0x46, 0x00, 0x8E, 0xFF, 0x3D, 0x00, 0x81, 0xFF, 0x30, 0x00, 
	0x1D, 0x00, 0x9E, 0xFF, 0x1F, 0x00, 0xDF, 0xFF, 0x0A, 0x00, 0x40, 0x00, 
	0x42, 0x00, 0x37, 0x00, 0xBC, 0xFF, 0xA3, 0xFF, 0x66, 0x00, 0x13, 0x00, 
	0xF2, 0xFF, 0xB1, 0xFF, 0x26, 0x00, 0xBC, 0xFF, 0xBC, 0xFF, 0x0C, 0x00, 
	0xE4, 0xFF, 0xC8, 0xFF, 0x69, 0x00, 0xEA, 0xFF, 0x78, 0x00, 0x8B, 0xFF, 
	0x37, 0x00, 0x49, 0x00, 0x7F, 0x00, 0xD7, 0xFF, 0x0D, 0x00, 0x04, 0x00, 
	0xC8, 0xFF, 0xA8, 0xFF, 0xD7, 0xFF, 0xC4, 0xFF, 0xE5, 0xFF, 0x12, 0x00, 
	0xC7, 0xFF, 0x47, 0x00, 0xE9, 0xFF, 0xA1, 0xFF, 0xA8, 0xFF, 0x07, 0x00, 
	0x07, 0x00, 0x3C, 0x00, 0xDB, 0xFF, 0x28, 0x00, 0xEE, 0xFF, 0xF2, 0xFF, 
	0x1C, 0x00, 0x7F, 0x00, 0x98, 0xFF, 0xDE, 0xFF, 0x16, 0x00, 0x9B, 0xFF, 
	0x9A, 0xFF, 0xE3, 0xFF, 0xC4, 0xFF, 0x0B, 0x00, 0xB2, 0xFF, 0x01, 0x00, 
	0xCF, 0xFF, 0x0E, 0x00, 0x25, 0x00, 0x39, 0x00, 0xCD, 0xFF, 0x68, 0x00, 
	0xED, 0xFF, 0xFF, 0xFF, 0x83, 0xFF, 0x23, 0x00, 0xEB, 0xFF, 0xE9, 0xFF, 
	0x15, 0x00, 0xA5, 0xFF, 0x73, 0x00, 0xF6, 0xFF, 0xEA, 0xFF, 0x99, 0xFF, 
	0xE5, 0xFF, 0x07, 0x00, 0xCB, 0xFF, 0xE4, 0xFF, 0xB2, 0xFF, 0x7F, 0x00, 
	0x1A, 0x00, 0xAE, 0xFF, 0xEB, 0xFF, 0x08, 0x00, 0x30, 0x00, 0x7F, 0x00, 
	0x13, 0x00, 0xC2, 0xFF, 0xA3, 0xFF, 0xFE, 0xFF, 0xF1, 0xFF, 0x7A, 0x00, 
	0xEC, 0xFF, 0xB6, 0xFF, 0x0A, 0x00, 0xC6, 0xFF, 0xC8, 0xFF, 0x21, 0x00, 
	0x00, 0x00, 0xCA, 0xFF, 0xCE, 0xFF, 0xF1, 0xFF, 0x15, 0x00, 0xB7, 0xFF, 
	0x5B, 0x00, 0x08, 0x00, 0x0A, 0x00, 0xF6, 0xFF, 0xB4, 0xFF, 0x09, 0x00, 
	0x71, 0x00, 0xC3, 0xFF, 0x22, 0x00, 0x2D, 0x00, 0x04, 0x00, 0xF1, 0xFF, 
	
// "p103": 
	0xB7, 0xFB, 0xFF, 0xFF, 0x6C, 0xEA, 0xFF, 0xFF, 0x57, 0x10, 0x00, 0x00, 
	0x08, 0xED, 0xFF, 0xFF, 0xBC, 0xFB, 0xFF, 0xFF, 0x8F, 0xDD, 0xFF, 0xFF, 
	0x99, 0x2B, 0x00, 0x00, 0xD7, 0xFA, 0xFF, 0xFF, 0x3E, 0x23, 0x00, 0x00, 
	0x8D, 0xF4, 0xFF, 0xFF, 0x33, 0x09, 0x00, 0x00, 0x8E, 0xF8, 0xFF, 0xFF, 
	0x44, 0x26, 0x00, 0x00, 0x46, 0xF8, 0xFF, 0xFF, 0xC8, 0x1A, 0x00, 0x00, 
	0x02, 0xFA, 0xFF, 0xFF, 0x48, 0xEE, 0xFF, 0xFF, 0x30, 0x00, 0x00, 0x00, 
	0x25, 0x2C, 0x00, 0x00, 0x30, 0x0F, 0x00, 0x00, 0x44, 0xFA, 0xFF, 0xFF, 
	0x2C, 0xE8, 0xFF, 0xFF, 0x61, 0x1F, 0x00, 0x00, 0xE8, 0x0A, 0x00, 0x00, 
	0x03, 0xEF, 0xFF, 0xFF, 0xF4, 0x03, 0x00, 0x00, 0xC2, 0xF0, 0xFF, 0xFF, 
	0x1B, 0xFC, 0xFF, 0xFF, 0xFA, 0x31, 0x00, 0x00, 0x0A, 0xFC, 0xFF, 0xFF, 
	0xDB, 0x18, 0x00, 0x00, 0xE2, 0xD5, 0xFF, 0xFF, 0x5B, 0xF3, 0xFF, 0xFF, 
	0x8F, 0xFD, 0xFF, 0xFF, 0x05, 0x0F, 0x00, 0x00, 0xC0, 0x08, 0x00, 0x00, 
	0x75, 0xAD, 0xFF, 0xFF, 0xE3, 0x06, 0x00, 0x00, 0xBF, 0xFF, 0xFF, 0xFF, 
	0xB7, 0xE7, 0xFF, 0xFF, 0x0A, 0xFC, 0xFF, 0xFF, 0x05, 0x16, 0x00, 0x00, 
	0x48, 0xE6, 0xFF, 0xFF, 0x77, 0xFD, 0xFF, 0xFF, 0xE4, 0xE7, 0xFF, 0xFF, 
	0x32, 0x0E, 0x00, 0x00, 0xA5, 0xFD, 0xFF, 0xFF, 0x7D, 0x1A, 0x00, 0x00, 
	0x62, 0xE7, 0xFF, 0xFF, 0x10, 0xF9, 0xFF, 0xFF, 0xBC, 0xEA, 0xFF, 0xFF, 
	0x1C, 0x17, 0x00, 0x00, 0xDB, 0xF4, 0xFF, 0xFF, 0x7C, 0xEE, 0xFF, 0xFF, 
	0x55, 0x00, 0x00, 0x00, 0x01, 0x30, 0x00, 0x00, 0xCE, 0xFE, 0xFF, 0xFF, 
	0x18, 0xB8, 0xFF, 0xFF, 0xE3, 0xEB, 0xFF, 0xFF, 0xEC, 0x23, 0x00, 0x00, 
	0x92, 0xD4, 0xFF, 0xFF, 0x58, 0xED, 0xFF, 0xFF, 0x1C, 0xFD, 0xFF, 0xFF, 
	0x4A, 0xF5, 0xFF, 0xFF, 0xFB, 0x13, 0x00, 0x00, 0xCC, 0x14, 0x00, 0x00, 
	0xD1, 0xF9, 0xFF, 0xFF, 0x80, 0xFF, 0xFF, 0xFF, 0xBD, 0x17, 0x00, 0x00, 
	0x04, 0xEA, 0xFF, 0xFF, 0x57, 0xFA, 0xFF, 0xFF, 0xF3, 0xFC, 0xFF, 0xFF, 
	0x92, 0xFF, 0xFF, 0xFF, 0x31, 0xF1, 0xFF, 0xFF, 0x39, 0x09, 0x00, 0x00, 
	0xFE, 0xEA, 0xFF, 0xFF, 0x33, 0xEC, 0xFF, 0xFF, 0x11, 0xEF, 0xFF, 0xFF, 
	0xF7, 0x0D, 0x00, 0x00, 0x8F, 0xFE, 0xFF, 0xFF, 0xC7, 0xEB, 0xFF, 0xFF, 
	0x86, 0xED, 0xFF, 0xFF, 0x7D, 0x00, 0x00, 0x00, 0x5E, 0xE5, 0xFF, 0xFF, 
	0xE1, 0xFA, 0xFF, 0xFF, 0xBD, 0x4C, 0x00, 0x00, 0x54, 0xD9, 0xFF, 0xFF, 
	0x0E, 0xFA, 0xFF, 0xFF, 0x94, 0xFE, 0xFF, 0xFF, 0x31, 0xF7, 0xFF, 0xFF, 
	0xE1, 0xF7, 0xFF, 0xFF, 0x8D, 0xF0, 0xFF, 0xFF, 0xB4, 0x22, 0x00, 0x00, 
	0x30, 0xDA, 0xFF, 0xFF, 0x85, 0xFC, 0xFF, 0xFF, 0xA7, 0xF3, 0xFF, 0xFF, 
	0x9E, 0xF6, 0xFF, 0xFF, 0xF3, 0xF8, 0xFF, 0xFF, 0x66, 0x02, 0x00, 0x00, 
	0x3D, 0xF7, 0xFF, 0xFF, 0xC1, 0x2B, 0x00, 0x00, 0x99, 0xF3, 0xFF, 0xFF, 
	0x4A, 0xEA, 0xFF, 0xFF, 0x6E, 0xF5, 0xFF, 0xFF, 0x35, 0xFC, 0xFF, 0xFF, 
	0xCD, 0x08, 0x00, 0x00, 0xFC, 0xE7, 0xFF, 0xFF, 0x8C, 0x1C, 0x00, 0x00, 
	0x78, 0xD6, 0xFF, 0xFF, 0x20, 0x2B, 0x00, 0x00, 0x4A, 0xFF, 0xFF, 0xFF, 
	0x2F, 0x26, 0x00, 0x00, 0xBF, 0x29, 0x00, 0x00, 0xF7, 0xEE, 0xFF, 0xFF, 
	0x13, 0x23, 0x00, 0x00, 0x30, 0xF4, 0xFF, 0xFF, 0x7B, 0xF7, 0xFF, 0xFF, 
	0xD1, 0xFA, 0xFF, 0xFF, 0xD6, 0xF2, 0xFF, 0xFF, 0x59, 0xEE, 0xFF, 0xFF, 
	0x9E, 0xE8, 0xFF, 0xFF, 0xE8, 0xF5, 0xFF, 0xFF, 0x4E, 0xF3, 0xFF, 0xFF, 
	0x07, 0xFF, 0xFF, 0xFF, 0x7C, 0x2B, 0x00, 0x00, 0xE3, 0xF2, 0xFF, 0xFF, 
	0x2C, 0xFB, 0xFF, 0xFF, 0xAF, 0xFD, 0xFF, 0xFF, 0x82, 0xFB, 0xFF, 0xFF, 
	0x0B, 0x2E, 0x00, 0x00, 0xD9, 0xF9, 0xFF, 0xFF, 0xDA, 0x1E, 0x00, 0x00, 
	0x5C, 0xF1, 0xFF, 0xFF, 0x71, 0xDB, 0xFF, 0xFF, 0xF4, 0xF7, 0xFF, 0xFF, 
	0xBE, 0x32, 0x00, 0x00, 0x9C, 0x0F, 0x00, 0x00, 0xBB, 0xFD, 0xFF, 0xFF, 
	0xA1, 0x11, 0x00, 0x00, 0x6A, 0x08, 0x00, 0x00, 0xF1, 0xF1, 0xFF, 0xFF, 
	0x2D, 0xF7, 0xFF, 0xFF, 0x5E, 0xF1, 0xFF, 0xFF, 0xAE, 0xEB, 0xFF, 0xFF, 
	0x15, 0xF0, 0xFF, 0xFF, 0x8C, 0xF6, 0xFF, 0xFF, 0x33, 0x0E, 0x00, 0x00, 
	0xAA, 0x0D, 0x00, 0x00, 0xCE, 0xF4, 0xFF, 0xFF, 0x52, 0xFC, 0xFF, 0xFF, 
	0x3C, 0xF8, 0xFF, 0xFF, 0xDE, 0xED, 0xFF, 0xFF, 
// "p104": 
	0xE4, 0x3D, 0x18, 0x54, 0x00, 0x00, 0x00, 0x00, 0x3E, 0x95, 0xBA, 0x55, 
	0x00, 0x00, 0x00, 0x00, 0xA4, 0xE1, 0x76, 0x42, 0x00, 0x00, 0x00, 0x00, 
	0x56, 0x8D, 0x5C, 0x50, 0x00, 0x00, 0x00, 0x00, 0xDC, 0x12, 0xF4, 0x55, 
	0x00, 0x00, 0x00, 0x00, 0xC2, 0x34, 0xBC, 0x79, 0x00, 0x00, 0x00, 0x00, 
	0x90, 0xFE, 0xAD, 0x52, 0x00, 0x00, 0x00, 0x00, 0x02, 0x5D, 0x32, 0x53, 
	0x00, 0x00, 0x00, 0x00, 0xB1, 0xA2, 0x82, 0x5F, 0x00, 0x00, 0x00, 0x00, 
	0xB7, 0x59, 0xCF, 0x57, 0x00, 0x00, 0x00, 0x00, 0x10, 0x74, 0x78, 0x42, 
	0x00, 0x00, 0x00, 0x00, 0x1F, 0x22, 0x48, 0x59, 0x00, 0x00, 0x00, 0x00, 
	0x7B, 0x58, 0x9F, 0x69, 0x00, 0x00, 0x00, 0x00, 0x6E, 0xA9, 0x24, 0x53, 
	0x00, 0x00, 0x00, 0x00, 0x55, 0x11, 0xFC, 0x75, 0x00, 0x00, 0x00, 0x00, 
	0x57, 0x1D, 0x42, 0x77, 0x00, 0x00, 0x00, 0x00, 0xB7, 0x37, 0x7A, 0x71, 
	0x00, 0x00, 0x00, 0x00, 0xA2, 0xD0, 0x75, 0x51, 0x00, 0x00, 0x00, 0x00, 
	0xEA, 0x38, 0x1D, 0x50, 0x00, 0x00, 0x00, 0x00, 0x35, 0x62, 0x49, 0x57, 
	0x00, 0x00, 0x00, 0x00, 0xBA, 0xCB, 0xFF, 0x5B, 0x00, 0x00, 0x00, 0x00, 
	0x65, 0xFE, 0xED, 0x42, 0x00, 0x00, 0x00, 0x00, 0x46, 0xA5, 0xDF, 0x67, 
	0x00, 0x00, 0x00, 0x00, 0x7A, 0x9A, 0xBD, 0x62, 0x00, 0x00, 0x00, 0x00, 
	0x28, 0x19, 0x58, 0x4D, 0x00, 0x00, 0x00, 0x00, 0x28, 0x85, 0x3E, 0x4F, 
	0x00, 0x00, 0x00, 0x00, 0x50, 0xD9, 0xDE, 0x79, 0x00, 0x00, 0x00, 0x00, 
	0x97, 0xDD, 0x3A, 0x7C, 0x00, 0x00, 0x00, 0x00, 0xD2, 0x43, 0xC5, 0x5B, 
	0x00, 0x00, 0x00, 0x00, 0x42, 0xBA, 0x0A, 0x7B, 0x00, 0x00, 0x00, 0x00, 
	0x8C, 0xA2, 0x46, 0x68, 0x00, 0x00, 0x00, 0x00, 0xD5, 0x91, 0x12, 0x65, 
	0x00, 0x00, 0x00, 0x00, 0xFA, 0x16, 0xAB, 0x72, 0x00, 0x00, 0x00, 0x00, 
	0x1D, 0x31, 0xFA, 0x49, 0x00, 0x00, 0x00, 0x00, 0x9B, 0x14, 0x8E, 0x51, 
	0x00, 0x00, 0x00, 0x00, 0x09, 0xA8, 0x33, 0x54, 0x00, 0x00, 0x00, 0x00, 
	0x12, 0xAE, 0x02, 0x6E, 0x00, 0x00, 0x00, 0x00, 0xA0, 0x57, 0xF7, 0x4C, 
	0x00, 0x00, 0x00, 0x00, 0xB5, 0x57, 0x55, 0x76, 0x00, 0x00, 0x00, 0x00, 
	0x7C, 0xE3, 0x3F, 0x48, 0x00, 0x00, 0x00, 0x00, 0xAA, 0x2D, 0x15, 0x4E, 
	0x00, 0x00, 0x00, 0x00, 0x59, 0xE7, 0xBB, 0x42, 0x00, 0x00, 0x00, 0x00, 
	0x7D, 0x6D, 0x96, 0x5F, 0x00, 0x00, 0x00, 0x00, 0xFD, 0x9D, 0x22, 0x72, 
	0x00, 0x00, 0x00, 0x00, 0xDF, 0xCF, 0x0F, 0x71, 0x00, 0x00, 0x00, 0x00, 
	0x3D, 0xA7, 0x9E, 0x5D, 0x00, 0x00, 0x00, 0x00, 0xD6, 0x16, 0x14, 0x7F, 
	0x00, 0x00, 0x00, 0x00, 0x5D, 0x61, 0xAB, 0x70, 0x00, 0x00, 0x00, 0x00, 
	0x05, 0x26, 0x7E, 0x41, 0x00, 0x00, 0x00, 0x00, 0xE7, 0x61, 0xF9, 0x4D, 
	0x00, 0x00, 0x00, 0x00, 0xF7, 0xC8, 0x6C, 0x5E, 0x00, 0x00, 0x00, 0x00, 
	0x8F, 0x4E, 0x1D, 0x44, 0x00, 0x00, 0x00, 0x00, 0x84, 0x5F, 0xDF, 0x6D, 
	0x00, 0x00, 0x00, 0x00, 0x1A, 0x7A, 0xA5, 0x54, 0x00, 0x00, 0x00, 0x00, 
	0xFB, 0x0C, 0xE9, 0x4A, 0x00, 0x00, 0x00, 0x00, 0xF6, 0x05, 0x97, 0x51, 
	0x00, 0x00, 0x00, 0x00, 0x9E, 0x78, 0xF2, 0x78, 0x00, 0x00, 0x00, 0x00, 
	0xAC, 0x00, 0x7C, 0x61, 0x00, 0x00, 0x00, 0x00, 0x56, 0x35, 0xD1, 0x7A, 
	0x00, 0x00, 0x00, 0x00, 0xF5, 0x84, 0x65, 0x58, 0x00, 0x00, 0x00, 0x00, 
	0x15, 0xFF, 0xE8, 0x41, 0x00, 0x00, 0x00, 0x00, 0xFF, 0xA2, 0xDF, 0x5E, 
	0x00, 0x00, 0x00, 0x00, 0x4A, 0xDB, 0x5F, 0x5C, 0x00, 0x00, 0x00, 0x00, 
	0xB7, 0x84, 0x24, 0x78, 0x00, 0x00, 0x00, 0x00, 0x3C, 0xE8, 0x8F, 0x78, 
	0x00, 0x00, 0x00, 0x00, 0x28, 0x5C, 0x7D, 0x7E, 0x00, 0x00, 0x00, 0x00, 
	0x67, 0x44, 0x45, 0x4B, 0x00, 0x00, 0x00, 0x00, 0xEB, 0x77, 0x6C, 0x64, 
	0x00, 0x00, 0x00, 0x00, 0xC8, 0x38, 0xD1, 0x62, 0x00, 0x00, 0x00, 0x00, 
	0x9F, 0x8F, 0x66, 0x50, 0x00, 0x00, 0x00, 0x00, 0x5C, 0xEA, 0xF9, 0x4F, 
	0x00, 0x00, 0x00, 0x00, 0xEB, 0xA8, 0x01, 0x50, 0x00, 0x00, 0x00, 0x00, 
	0x04, 0x84, 0x1D, 0x44, 0x00, 0x00, 0x00, 0x00, 0xE3, 0xC7, 0xFE, 0x40, 
	0x00, 0x00, 0x00, 0x00, 0x79, 0x87, 0x2C, 0x5E, 0x00, 0x00, 0x00, 0x00, 
	0x62, 0x8A, 0xAE, 0x4B, 0x00, 0x00, 0x00, 0x00, 0xB2, 0x43, 0x33, 0x61, 
	0x00, 0x00, 0x00, 0x00, 0x33, 0xB8, 0x7E, 0x70, 0x00, 0x00, 0x00, 0x00, 
	0x27, 0xC9, 0x03, 0x49, 0x00, 0x00, 0x00, 0x00, 0xBC, 0x3C, 0x95, 0x55, 
	0x00, 0x00, 0x00, 0x00, 0xCD, 0x78, 0xDE, 0x64, 0x00, 0x00, 0x00, 0x00, 
	0x70, 0xBD, 0x5F, 0x56, 0x00, 0x00, 0x00, 0x00, 0xA4, 0x9D, 0xF7, 0x54, 
	0x00, 0x00, 0x00, 0x00, 0x16, 0xB3, 0x9D, 0x72, 0x00, 0x00, 0x00, 0x00, 
	0xE7, 0x48, 0x8E, 0x71, 0x00, 0x00, 0x00, 0x00, 0x25, 0x1D, 0x10, 0x42, 
	0x00, 0x00, 0x00, 0x00, 0x5B, 0x89, 0x73, 0x7E, 0x00, 0x00, 0x00, 0x00, 
	0x9C, 0x38, 0x78, 0x46, 0x00, 0x00, 0x00, 0x00, 0x9F, 0x76, 0xFF, 0x6F, 
	0x00, 0x00, 0x00, 0x00, 0x90, 0x92, 0xC8, 0x4F, 0x00, 0x00, 0x00, 0x00, 
	0xD9, 0x96, 0x47, 0x76, 0x00, 0x00, 0x00, 0x00, 0xE6, 0xF2, 0xC5, 0x48, 
	0x00, 0x00, 0x00, 0x00, 0x3D, 0x91, 0x9B, 0x70, 0x00, 0x00, 0x00, 0x00, 
	0x87, 0x7B, 0xA7, 0x40, 0x00, 0x00, 0x00, 0x00, 0x5E, 0x72, 0xFB, 0x66, 
	0x00, 0x00, 0x00, 0x00, 0xEC, 0xD9, 0x69, 0x5C, 0x00, 0x00, 0x00, 0x00, 
	0x2B, 0x22, 0xE7, 0x58, 0x00, 0x00, 0x00, 0x00, 0x2C, 0x51, 0xFF, 0x62, 
	0x00, 0x00, 0x00, 0x00, 0xD8, 0x72, 0xD6, 0x66, 0x00, 0x00, 0x00, 0x00, 
	0x70, 0x2C, 0x3E, 0x5C, 0x00, 0x00, 0x00, 0x00, 0x24, 0x1D, 0xAA, 0x4F, 
	0x00, 0x00, 0x00, 0x00, 0x14, 0x44, 0xCF, 0x62, 0x00, 0x00, 0x00, 0x00, 
	0x21, 0xEE, 0x79, 0x59, 0x00, 0x00, 0x00, 0x00, 0xB5, 0x8D, 0xC2, 0x7B, 
	0x00, 0x00, 0x00, 0x00, 0xE0, 0x4C, 0x1F, 0x47, 0x00, 0x00, 0x00, 0x00, 
	0x9C, 0xAC, 0x79, 0x6E, 0x00, 0x00, 0x00, 0x00, 0x61, 0xE0, 0x1E, 0x78, 
	0x00, 0x00, 0x00, 0x00, 0x4C, 0xC8, 0x62, 0x66, 0x00, 0x00, 0x00, 0x00, 
	0x62, 0x52, 0x38, 0x4E, 0x00, 0x00, 0x00, 0x00, 0xE9, 0x65, 0x8F, 0x59, 
	0x00, 0x00, 0x00, 0x00, 0xC1, 0x88, 0xB9, 0x7D, 0x00, 0x00, 0x00, 0x00, 
	0xBE, 0x19, 0x5A, 0x5A, 0x00, 0x00, 0x00, 0x00, 0x0A, 0x17, 0x23, 0x4D, 
	0x00, 0x00, 0x00, 0x00, 0x9A, 0xDB, 0x2B, 0x47, 0x00, 0x00, 0x00, 0x00, 
	0x6B, 0xF7, 0xB0, 0x71, 0x00, 0x00, 0x00, 0x00, 0xDB, 0x45, 0x52, 0x69, 
	0x00, 0x00, 0x00, 0x00, 0x87, 0x97, 0x15, 0x59, 0x00, 0x00, 0x00, 0x00, 
	0x35, 0xC5, 0xBB, 0x77, 0x00, 0x00, 0x00, 0x00, 0x0E, 0xD5, 0x36, 0x6C, 
	0x00, 0x00, 0x00, 0x00, 0xC9, 0xFF, 0x6C, 0x57, 0x00, 0x00, 0x00, 0x00, 
	0xB9, 0x0A, 0xA7, 0x6F, 0x00, 0x00, 0x00, 0x00, 0xAC, 0x7A, 0x8C, 0x79, 
	0x00, 0x00, 0x00, 0x00, 0x1F, 0x41, 0x23, 0x5D, 0x00, 0x00, 0x00, 0x00, 
	0xF7, 0x87, 0xC6, 0x4B, 0x00, 0x00, 0x00, 0x00, 0x0A, 0xB5, 0x88, 0x4A, 
	0x00, 0x00, 0x00, 0x00, 0xE8, 0x3B, 0xB8, 0x5A, 0x00, 0x00, 0x00, 0x00, 
	0x3C, 0xC4, 0xCA, 0x67, 0x00, 0x00, 0x00, 0x00, 0x5C, 0xB0, 0x58, 0x74, 
	0x00, 0x00, 0x00, 0x00, 0xA7, 0x71, 0xDA, 0x49, 0x00, 0x00, 0x00, 0x00, 
	0xAA, 0xC8, 0xD3, 0x4A, 0x00, 0x00, 0x00, 0x00, 0x40, 0x59, 0x98, 0x5A, 
	0x00, 0x00, 0x00, 0x00, 0xB9, 0xD4, 0x97, 0x63, 0x00, 0x00, 0x00, 0x00, 
	0x38, 0x50, 0x7F, 0x7A, 0x00, 0x00, 0x00, 0x00, 0xDB, 0x97, 0x43, 0x77, 
	0x00, 0x00, 0x00, 0x00, 0x8F, 0xF7, 0x03, 0x58, 0x00, 0x00, 0x00, 0x00, 
	0x49, 0xF5, 0xF7, 0x56, 0x00, 0x00, 0x00, 0x00, 0xFA, 0x92, 0x9C, 0x60, 
	0x00, 0x00, 0x00, 0x00, 0xDC, 0x5D, 0xE5, 0x68, 0x00, 0x00, 0x00, 0x00, 
	0xBE, 0xBE, 0x56, 0x61, 0x00, 0x00, 0x00, 0x00, 0xC0, 0xBB, 0x3F, 0x73, 
	0x00, 0x00, 0x00, 0x00, 0xCA, 0x68, 0x39, 0x6F, 0x00, 0x00, 0x00, 0x00, 
	0x5E, 0x33, 0xD4, 0x73, 0x00, 0x00, 0x00, 0x00, 0x42, 0x6E, 0x24, 0x60, 
	0x00, 0x00, 0x00, 0x00, 0x00, 0xCA, 0x73, 0x51, 0x00, 0x00, 0x00, 0x00, 
	0x28, 0xDD, 0xEB, 0x4A, 0x00, 0x00, 0x00, 0x00, 0x82, 0xDB, 0xE3, 0x4E, 
	0x00, 0x00, 0x00, 0x00, 0x99, 0x9D, 0x3B, 0x6A, 0x00, 0x00, 0x00, 0x00, 
	0x0E, 0xCA, 0x51, 0x60, 0x00, 0x00, 0x00, 0x00, 0x8D, 0xB6, 0xAD, 0x4A, 
	0x00, 0x00, 0x00, 0x00, 0xF8, 0xAA, 0xAF, 0x41, 0x00, 0x00, 0x00, 0x00, 
	0xF7, 0x52, 0xA9, 0x49, 0x00, 0x00, 0x00, 0x00, 0xB2, 0xFA, 0x7B, 0x61, 
	0x00, 0x00, 0x00, 0x00, 
// "p105": 
	0x00, 0x00, 0x00, 0x00, 0x10, 0x00, 0x00, 0x00, 0x00, 0x00, 0x00, 0x00, 
	0x10, 0x00, 0x00, 0x00, 0x00, 0x00, 0x00, 0x00, 0x10, 0x00, 0x00, 0x00, 
	0x00, 0x00, 0x00, 0x00, 0x10, 0x00, 0x00, 0x00, 0x00, 0x00, 0x00, 0x00, 
	0x10, 0x00, 0x00, 0x00, 0x00, 0x00, 0x00, 0x00, 0x20, 0x00, 0x00, 0x00, 
	0x00, 0x00, 0x00, 0x00, 0x20, 0x00, 0x00, 0x00, 0x00, 0x00, 0x00, 0x00, 
	0x10, 0x00, 0x00, 0x00, 0x00, 0x00, 0x00, 0x00, 0x20, 0x00, 0x00, 0x00, 
	0x00, 0x00, 0x00, 0x00, 0x10, 0x00, 0x00, 0x00, 0x00, 0x00, 0x00, 0x00, 
	0x10, 0x00, 0x00, 0x00, 0x00, 0x00, 0x00, 0x00, 0x10, 0x00, 0x00, 0x00, 
	0x00, 0x00, 0x00, 0x00, 0x20, 0x00, 0x00, 0x00, 0x00, 0x00, 0x00, 0x00, 
	0x10, 0x00, 0x00, 0x00, 0x00, 0x00, 0x00, 0x00, 0x20, 0x00, 0x00, 0x00, 
	0x00, 0x00, 0x00, 0x00, 0x20, 0x00, 0x00, 0x00, 0x00, 0x00, 0x00, 0x00, 
	0x20, 0x00, 0x00, 0x00, 0x00, 0x00, 0x00, 0x00, 0x10, 0x00, 0x00, 0x00, 
	0x00, 0x00, 0x00, 0x00, 0x20, 0x00, 0x00, 0x00, 0x00, 0x00, 0x00, 0x00, 
	0x10, 0x00, 0x00, 0x00, 0x00, 0x00, 0x00, 0x00, 0x10, 0x00, 0x00, 0x00, 
	0x00, 0x00, 0x00, 0x00, 0x10, 0x00, 0x00, 0x00, 0x00, 0x00, 0x00, 0x00, 
	0x20, 0x00, 0x00, 0x00, 0x00, 0x00, 0x00, 0x00, 0x20, 0x00, 0x00, 0x00, 
	0x00, 0x00, 0x00, 0x00, 0x10, 0x00, 0x00, 0x00, 0x00, 0x00, 0x00, 0x00, 
	0x10, 0x00, 0x00, 0x00, 0x00, 0x00, 0x00, 0x00, 0x20, 0x00, 0x00, 0x00, 
	0x00, 0x00, 0x00, 0x00, 0x10, 0x00, 0x00, 0x00, 0x00, 0x00, 0x00, 0x00, 
	0x20, 0x00, 0x00, 0x00, 0x00, 0x00, 0x00, 0x00, 0x20, 0x00, 0x00, 0x00, 
	0x00, 0x00, 0x00, 0x00, 0x20, 0x00, 0x00, 0x00, 0x00, 0x00, 0x00, 0x00, 
	0x20, 0x00, 0x00, 0x00, 0x00, 0x00, 0x00, 0x00, 0x20, 0x00, 0x00, 0x00, 
	0x00, 0x00, 0x00, 0x00, 0x10, 0x00, 0x00, 0x00, 0x00, 0x00, 0x00, 0x00, 
	0x10, 0x00, 0x00, 0x00, 0x00, 0x00, 0x00, 0x00, 0x10, 0x00, 0x00, 0x00, 
	0x00, 0x00, 0x00, 0x00, 0x20, 0x00, 0x00, 0x00, 0x00, 0x00, 0x00, 0x00, 
	0x10, 0x00, 0x00, 0x00, 0x00, 0x00, 0x00, 0x80, 0x00, 0x00, 0x00, 0x00, 
	0x00, 0x00, 0x00, 0x00, 0x10, 0x00, 0x00, 0x00, 0x00, 0x00, 0x00, 0x00, 
	0x10, 0x00, 0x00, 0x00, 0x00, 0x00, 0x00, 0x00, 0x10, 0x00, 0x00, 0x00, 
	0x00, 0x00, 0x00, 0x00, 0x10, 0x00, 0x00, 0x00, 0x00, 0x00, 0x00, 0x00, 
	0x10, 0x00, 0x00, 0x00, 0x00, 0x00, 0x00, 0x00, 0x10, 0x00, 0x00, 0x00, 
	0x00, 0x00, 0x00, 0x00, 0x10, 0x00, 0x00, 0x00, 0x00, 0x00, 0x00, 0x00, 
	0x20, 0x00, 0x00, 0x00, 0x00, 0x00, 0x00, 0x00, 0x20, 0x00, 0x00, 0x00, 
	0x00, 0x00, 0x00, 0x00, 0x08, 0x00, 0x00, 0x00, 0x00, 0x00, 0x00, 0x00, 
	0x10, 0x00, 0x00, 0x00, 0x00, 0x00, 0x00, 0x00, 0x10, 0x00, 0x00, 0x00, 
	0x00, 0x00, 0x00, 0x00, 0x10, 0x00, 0x00, 0x00, 0x00, 0x00, 0x00, 0x00, 
	0x20, 0x00, 0x00, 0x00, 0x00, 0x00, 0x00, 0x00, 0x10, 0x00, 0x00, 0x00, 
	0x00, 0x00, 0x00, 0x00, 0x10, 0x00, 0x00, 0x00, 0x00, 0x00, 0x00, 0x00, 
	0x20, 0x00, 0x00, 0x00, 0x00, 0x00, 0x00, 0x00, 0x04, 0x00, 0x00, 0x00, 
	0x00, 0x00, 0x00, 0x00, 0x20, 0x00, 0x00, 0x00, 0x00, 0x00, 0x00, 0x00, 
	0x20, 0x00, 0x00, 0x00, 0x00, 0x00, 0x00, 0x00, 0x20, 0x00, 0x00, 0x00, 
	0x00, 0x00, 0x00, 0x00, 0x10, 0x00, 0x00, 0x00, 0x00, 0x00, 0x00, 0x00, 
	0x10, 0x00, 0x00, 0x00, 0x00, 0x00, 0x00, 0x00, 0x10, 0x00, 0x00, 0x00, 
	0x00, 0x00, 0x00, 0x00, 0x10, 0x00, 0x00, 0x00, 0x00, 0x00, 0x00, 0x00, 
	0x20, 0x00, 0x00, 0x00, 0x00, 0x00, 0x00, 0x00, 0x20, 0x00, 0x00, 0x00, 
	0x00, 0x00, 0x00, 0x00, 0x10, 0x00, 0x00, 0x00, 0x00, 0x00, 0x00, 0x00, 
	0x10, 0x00, 0x00, 0x00, 0x00, 0x00, 0x00, 0x00, 0x20, 0x00, 0x00, 0x00, 
	0x00, 0x00, 0x00, 0x00, 0x10, 0x00, 0x00, 0x00, 0x00, 0x00, 0x00, 0x00, 
	0x10, 0x00, 0x00, 0x00, 0x00, 0x00, 0x00, 0x00, 0x10, 0x00, 0x00, 0x00, 
	0x00, 0x00, 0x00, 0x00, 0x10, 0x00, 0x00, 0x00, 0x00, 0x00, 0x00, 0x00, 
	0x08, 0x00, 0x00, 0x00, 0x00, 0x00, 0x00, 0x00, 0x10, 0x00, 0x00, 0x00, 
	0x00, 0x00, 0x00, 0x00, 0x10, 0x00, 0x00, 0x00, 0x00, 0x00, 0x00, 0x00, 
	0x10, 0x00, 0x00, 0x00, 0x00, 0x00, 0x00, 0x00, 0x10, 0x00, 0x00, 0x00, 
	0x00, 0x00, 0x00, 0x00, 0x10, 0x00, 0x00, 0x00, 0x00, 0x00, 0x00, 0x00, 
	0x08, 0x00, 0x00, 0x00, 0x00, 0x00, 0x00, 0x00, 0x10, 0x00, 0x00, 0x00, 
	0x00, 0x00, 0x00, 0x00, 0x10, 0x00, 0x00, 0x00, 0x00, 0x00, 0x00, 0x00, 
	0x10, 0x00, 0x00, 0x00, 0x00, 0x00, 0x00, 0x00, 0x20, 0x00, 0x00, 0x00, 
	0x00, 0x00, 0x00, 0x00, 0x10, 0x00, 0x00, 0x00, 0x00, 0x00, 0x00, 0x00, 
	0x20, 0x00, 0x00, 0x00, 0x00, 0x00, 0x00, 0x00, 0x20, 0x00, 0x00, 0x00, 
	0x00, 0x00, 0x00, 0x00, 0x08, 0x00, 0x00, 0x00, 0x00, 0x00, 0x00, 0x00, 
	0x08, 0x00, 0x00, 0x00, 0x00, 0x00, 0x00, 0x00, 0x10, 0x00, 0x00, 0x00, 
	0x00, 0x00, 0x00, 0x00, 0x10, 0x00, 0x00, 0x00, 0x00, 0x00, 0x00, 0x00, 
	0x10, 0x00, 0x00, 0x00, 0x00, 0x00, 0x00, 0x00, 0x20, 0x00, 0x00, 0x00, 
	0x00, 0x00, 0x00, 0x00, 0x10, 0x00, 0x00, 0x00, 0x00, 0x00, 0x00, 0x00, 
	0x10, 0x00, 0x00, 0x00, 0x00, 0x00, 0x00, 0x00, 0x10, 0x00, 0x00, 0x00, 
	0x00, 0x00, 0x00, 0x00, 0x10, 0x00, 0x00, 0x00, 0x00, 0x00, 0x00, 0x00, 
	0x08, 0x00, 0x00, 0x00, 0x00, 0x00, 0x00, 0x00, 0x10, 0x00, 0x00, 0x00, 
	0x00, 0x00, 0x00, 0x00, 0x20, 0x00, 0x00, 0x00, 0x00, 0x00, 0x00, 0x00, 
	0x20, 0x00, 0x00, 0x00, 0x00, 0x00, 0x00, 0x00, 0x10, 0x00, 0x00, 0x00, 
	0x00, 0x00, 0x00, 0x00, 0x10, 0x00, 0x00, 0x00, 0x00, 0x00, 0x00, 0x00, 
	0x20, 0x00, 0x00, 0x00, 0x00, 0x00, 0x00, 0x00, 0x10, 0x00, 0x00, 0x00, 
	0x00, 0x00, 0x00, 0x00, 0x20, 0x00, 0x00, 0x00, 0x00, 0x00, 0x00, 0x00, 
	0x20, 0x00, 0x00, 0x00, 0x00, 0x00, 0x00, 0x00, 0x20, 0x00, 0x00, 0x00, 
	0x00, 0x00, 0x00, 0x00, 0x10, 0x00, 0x00, 0x00, 0x00, 0x00, 0x00, 0x00, 
	0x20, 0x00, 0x00, 0x00, 0x00, 0x00, 0x00, 0x00, 0x02, 0x00, 0x00, 0x00, 
	0x00, 0x00, 0x00, 0x00, 0x20, 0x00, 0x00, 0x00, 0x00, 0x00, 0x00, 0x00, 
	0x20, 0x00, 0x00, 0x00, 0x00, 0x00, 0x00, 0x00, 0x10, 0x00, 0x00, 0x00, 
	0x00, 0x00, 0x00, 0x00, 0x20, 0x00, 0x00, 0x00, 0x00, 0x00, 0x00, 0x00, 
	0x20, 0x00, 0x00, 0x00, 0x00, 0x00, 0x00, 0x00, 0x10, 0x00, 0x00, 0x00, 
	0x00, 0x00, 0x00, 0x00, 0x20, 0x00, 0x00, 0x00, 0x00, 0x00, 0x00, 0x00, 
	0x10, 0x00, 0x00, 0x00, 0x00, 0x00, 0x00, 0x00, 0x10, 0x00, 0x00, 0x00, 
	0x00, 0x00, 0x00, 0x00, 0x20, 0x00, 0x00, 0x00, 0x00, 0x00, 0x00, 0x00, 
	0x10, 0x00, 0x00, 0x00, 0x00, 0x00, 0x00, 0x00, 0x10, 0x00, 0x00, 0x00, 
	0x00, 0x00, 0x00, 0x00, 0x10, 0x00, 0x00, 0x00, 0x00, 0x00, 0x00, 0x00, 
	0x20, 0x00, 0x00, 0x00, 0x00, 0x00, 0x00, 0x00, 0x10, 0x00, 0x00, 0x00, 
	0x00, 0x00, 0x00, 0x00, 0x10, 0x00, 0x00, 0x00, 0x00, 0x00, 0x00, 0x00, 
	0x20, 0x00, 0x00, 0x00, 0x00, 0x00, 0x00, 0x00, 0x10, 0x00, 0x00, 0x00, 
	0x00, 0x00, 0x00, 0x00, 0x20, 0x00, 0x00, 0x00, 0x00, 0x00, 0x00, 0x00, 
	0x10, 0x00, 0x00, 0x00, 0x00, 0x00, 0x00, 0x00, 0x20, 0x00, 0x00, 0x00, 
	0x00, 0x00, 0x00, 0x00, 0x20, 0x00, 0x00, 0x00, 0x00, 0x00, 0x00, 0x00, 
	0x20, 0x00, 0x00, 0x00, 0x00, 0x00, 0x00, 0x00, 0x10, 0x00, 0x00, 0x00, 
	0x00, 0x00, 0x00, 0x00, 0x20, 0x00, 0x00, 0x00, 0x00, 0x00, 0x00, 0x00, 
	0x10, 0x00, 0x00, 0x00, 0x00, 0x00, 0x00, 0x00, 0x10, 0x00, 0x00, 0x00, 
	0x00, 0x00, 0x00, 0x00, 0x10, 0x00, 0x00, 0x00, 0x00, 0x00, 0x00, 0x00, 
	0x20, 0x00, 0x00, 0x00, 0x00, 0x00, 0x00, 0x00, 0x20, 0x00, 0x00, 0x00, 
	0x00, 0x00, 0x00, 0x00, 0x10, 0x00, 0x00, 0x00, 0x00, 0x00, 0x00, 0x00, 
	0x10, 0x00, 0x00, 0x00, 0x00, 0x00, 0x00, 0x00, 0x10, 0x00, 0x00, 0x00, 
	0x00, 0x00, 0x00, 0x00, 0x10, 0x00, 0x00, 0x00, 0x00, 0x00, 0x00, 0x00, 
	0x10, 0x00, 0x00, 0x00, 0x00, 0x00, 0x00, 0x00, 0x20, 0x00, 0x00, 0x00, 
	0x00, 0x00, 0x00, 0x00, 0x10, 0x00, 0x00, 0x00, 0x00, 0x00, 0x00, 0x00, 
	0x10, 0x00, 0x00, 0x00, 0x00, 0x00, 0x00, 0x00, 0x08, 0x00, 0x00, 0x00, 
	0x00, 0x00, 0x00, 0x00, 0x08, 0x00, 0x00, 0x00, 0x00, 0x00, 0x00, 0x00, 
	0x10, 0x00, 0x00, 0x00, 
// "p106": 
	0x25, 0x00, 0x00, 0x00, 0x00, 0x00, 0x00, 0x00, 0x25, 0x00, 0x00, 0x00, 
	0x00, 0x00, 0x00, 0x00, 0x25, 0x00, 0x00, 0x00, 0x00, 0x00, 0x00, 0x00, 
	0x25, 0x00, 0x00, 0x00, 0x00, 0x00, 0x00, 0x00, 0x25, 0x00, 0x00, 0x00, 
	0x00, 0x00, 0x00, 0x00, 0x26, 0x00, 0x00, 0x00, 0x00, 0x00, 0x00, 0x00, 
	0x26, 0x00, 0x00, 0x00, 0x00, 0x00, 0x00, 0x00, 0x25, 0x00, 0x00, 0x00, 
	0x00, 0x00, 0x00, 0x00, 0x26, 0x00, 0x00, 0x00, 0x00, 0x00, 0x00, 0x00, 
	0x25, 0x00, 0x00, 0x00, 0x00, 0x00, 0x00, 0x00, 0x25, 0x00, 0x00, 0x00, 
	0x00, 0x00, 0x00, 0x00, 0x25, 0x00, 0x00, 0x00, 0x00, 0x00, 0x00, 0x00, 
	0x26, 0x00, 0x00, 0x00, 0x00, 0x00, 0x00, 0x00, 0x25, 0x00, 0x00, 0x00, 
	0x00, 0x00, 0x00, 0x00, 0x26, 0x00, 0x00, 0x00, 0x00, 0x00, 0x00, 0x00, 
	0x26, 0x00, 0x00, 0x00, 0x00, 0x00, 0x00, 0x00, 0x26, 0x00, 0x00, 0x00, 
	0x00, 0x00, 0x00, 0x00, 0x25, 0x00, 0x00, 0x00, 0x00, 0x00, 0x00, 0x00, 
	0x26, 0x00, 0x00, 0x00, 0x00, 0x00, 0x00, 0x00, 0x25, 0x00, 0x00, 0x00, 
	0x00, 0x00, 0x00, 0x00, 0x25, 0x00, 0x00, 0x00, 0x00, 0x00, 0x00, 0x00, 
	0x25, 0x00, 0x00, 0x00, 0x00, 0x00, 0x00, 0x00, 0x26, 0x00, 0x00, 0x00, 
	0x00, 0x00, 0x00, 0x00, 0x26, 0x00, 0x00, 0x00, 0x00, 0x00, 0x00, 0x00, 
	0x25, 0x00, 0x00, 0x00, 0x00, 0x00, 0x00, 0x00, 0x25, 0x00, 0x00, 0x00, 
	0x00, 0x00, 0x00, 0x00, 0x26, 0x00, 0x00, 0x00, 0x00, 0x00, 0x00, 0x00, 
	0x25, 0x00, 0x00, 0x00, 0x00, 0x00, 0x00, 0x00, 0x26, 0x00, 0x00, 0x00, 
	0x00, 0x00, 0x00, 0x00, 0x26, 0x00, 0x00, 0x00, 0x00, 0x00, 0x00, 0x00, 
	0x26, 0x00, 0x00, 0x00, 0x00, 0x00, 0x00, 0x00, 0x26, 0x00, 0x00, 0x00, 
	0x00, 0x00, 0x00, 0x00, 0x26, 0x00, 0x00, 0x00, 0x00, 0x00, 0x00, 0x00, 
	0x25, 0x00, 0x00, 0x00, 0x00, 0x00, 0x00, 0x00, 0x25, 0x00, 0x00, 0x00, 
	0x00, 0x00, 0x00, 0x00, 0x25, 0x00, 0x00, 0x00, 0x00, 0x00, 0x00, 0x00, 
	0x26, 0x00, 0x00, 0x00, 0x00, 0x00, 0x00, 0x00, 0x25, 0x00, 0x00, 0x00, 
	0x00, 0x00, 0x00, 0x00, 0x20, 0x00, 0x00, 0x00, 0x00, 0x00, 0x00, 0x00, 
	0x25, 0x00, 0x00, 0x00, 0x00, 0x00, 0x00, 0x00, 0x25, 0x00, 0x00, 0x00, 
	0x00, 0x00, 0x00, 0x00, 0x25, 0x00, 0x00, 0x00, 0x00, 0x00, 0x00, 0x00, 
	0x25, 0x00, 0x00, 0x00, 0x00, 0x00, 0x00, 0x00, 0x25, 0x00, 0x00, 0x00, 
	0x00, 0x00, 0x00, 0x00, 0x25, 0x00, 0x00, 0x00, 0x00, 0x00, 0x00, 0x00, 
	0x25, 0x00, 0x00, 0x00, 0x00, 0x00, 0x00, 0x00, 0x26, 0x00, 0x00, 0x00, 
	0x00, 0x00, 0x00, 0x00, 0x26, 0x00, 0x00, 0x00, 0x00, 0x00, 0x00, 0x00, 
	0x24, 0x00, 0x00, 0x00, 0x00, 0x00, 0x00, 0x00, 0x25, 0x00, 0x00, 0x00, 
	0x00, 0x00, 0x00, 0x00, 0x25, 0x00, 0x00, 0x00, 0x00, 0x00, 0x00, 0x00, 
	0x25, 0x00, 0x00, 0x00, 0x00, 0x00, 0x00, 0x00, 0x26, 0x00, 0x00, 0x00, 
	0x00, 0x00, 0x00, 0x00, 0x25, 0x00, 0x00, 0x00, 0x00, 0x00, 0x00, 0x00, 
	0x25, 0x00, 0x00, 0x00, 0x00, 0x00, 0x00, 0x00, 0x26, 0x00, 0x00, 0x00, 
	0x00, 0x00, 0x00, 0x00, 0x23, 0x00, 0x00, 0x00, 0x00, 0x00, 0x00, 0x00, 
	0x26, 0x00, 0x00, 0x00, 0x00, 0x00, 0x00, 0x00, 0x26, 0x00, 0x00, 0x00, 
	0x00, 0x00, 0x00, 0x00, 0x26, 0x00, 0x00, 0x00, 0x00, 0x00, 0x00, 0x00, 
	0x25, 0x00, 0x00, 0x00, 0x00, 0x00, 0x00, 0x00, 0x25, 0x00, 0x00, 0x00, 
	0x00, 0x00, 0x00, 0x00, 0x25, 0x00, 0x00, 0x00, 0x00, 0x00, 0x00, 0x00, 
	0x25, 0x00, 0x00, 0x00, 0x00, 0x00, 0x00, 0x00, 0x26, 0x00, 0x00, 0x00, 
	0x00, 0x00, 0x00, 0x00, 0x26, 0x00, 0x00, 0x00, 0x00, 0x00, 0x00, 0x00, 
	0x25, 0x00, 0x00, 0x00, 0x00, 0x00, 0x00, 0x00, 0x25, 0x00, 0x00, 0x00, 
	0x00, 0x00, 0x00, 0x00, 0x26, 0x00, 0x00, 0x00, 0x00, 0x00, 0x00, 0x00, 
	0x25, 0x00, 0x00, 0x00, 0x00, 0x00, 0x00, 0x00, 0x25, 0x00, 0x00, 0x00, 
	0x00, 0x00, 0x00, 0x00, 0x25, 0x00, 0x00, 0x00, 0x00, 0x00, 0x00, 0x00, 
	0x25, 0x00, 0x00, 0x00, 0x00, 0x00, 0x00, 0x00, 0x24, 0x00, 0x00, 0x00, 
	0x00, 0x00, 0x00, 0x00, 0x25, 0x00, 0x00, 0x00, 0x00, 0x00, 0x00, 0x00, 
	0x25, 0x00, 0x00, 0x00, 0x00, 0x00, 0x00, 0x00, 0x25, 0x00, 0x00, 0x00, 
	0x00, 0x00, 0x00, 0x00, 0x25, 0x00, 0x00, 0x00, 0x00, 0x00, 0x00, 0x00, 
	0x25, 0x00, 0x00, 0x00, 0x00, 0x00, 0x00, 0x00, 0x24, 0x00, 0x00, 0x00, 
	0x00, 0x00, 0x00, 0x00, 0x25, 0x00, 0x00, 0x00, 0x00, 0x00, 0x00, 0x00, 
	0x25, 0x00, 0x00, 0x00, 0x00, 0x00, 0x00, 0x00, 0x25, 0x00, 0x00, 0x00, 
	0x00, 0x00, 0x00, 0x00, 0x26, 0x00, 0x00, 0x00, 0x00, 0x00, 0x00, 0x00, 
	0x25, 0x00, 0x00, 0x00, 0x00, 0x00, 0x00, 0x00, 0x26, 0x00, 0x00, 0x00, 
	0x00, 0x00, 0x00, 0x00, 0x26, 0x00, 0x00, 0x00, 0x00, 0x00, 0x00, 0x00, 
	0x24, 0x00, 0x00, 0x00, 0x00, 0x00, 0x00, 0x00, 0x24, 0x00, 0x00, 0x00, 
	0x00, 0x00, 0x00, 0x00, 0x25, 0x00, 0x00, 0x00, 0x00, 0x00, 0x00, 0x00, 
	0x25, 0x00, 0x00, 0x00, 0x00, 0x00, 0x00, 0x00, 0x25, 0x00, 0x00, 0x00, 
	0x00, 0x00, 0x00, 0x00, 0x26, 0x00, 0x00, 0x00, 0x00, 0x00, 0x00, 0x00, 
	0x25, 0x00, 0x00, 0x00, 0x00, 0x00, 0x00, 0x00, 0x25, 0x00, 0x00, 0x00, 
	0x00, 0x00, 0x00, 0x00, 0x25, 0x00, 0x00, 0x00, 0x00, 0x00, 0x00, 0x00, 
	0x25, 0x00, 0x00, 0x00, 0x00, 0x00, 0x00, 0x00, 0x24, 0x00, 0x00, 0x00, 
	0x00, 0x00, 0x00, 0x00, 0x25, 0x00, 0x00, 0x00, 0x00, 0x00, 0x00, 0x00, 
	0x26, 0x00, 0x00, 0x00, 0x00, 0x00, 0x00, 0x00, 0x26, 0x00, 0x00, 0x00, 
	0x00, 0x00, 0x00, 0x00, 0x25, 0x00, 0x00, 0x00, 0x00, 0x00, 0x00, 0x00, 
	0x25, 0x00, 0x00, 0x00, 0x00, 0x00, 0x00, 0x00, 0x26, 0x00, 0x00, 0x00, 
	0x00, 0x00, 0x00, 0x00, 0x25, 0x00, 0x00, 0x00, 0x00, 0x00, 0x00, 0x00, 
	0x26, 0x00, 0x00, 0x00, 0x00, 0x00, 0x00, 0x00, 0x26, 0x00, 0x00, 0x00, 
	0x00, 0x00, 0x00, 0x00, 0x26, 0x00, 0x00, 0x00, 0x00, 0x00, 0x00, 0x00, 
	0x25, 0x00, 0x00, 0x00, 0x00, 0x00, 0x00, 0x00, 0x26, 0x00, 0x00, 0x00, 
	0x00, 0x00, 0x00, 0x00, 0x22, 0x00, 0x00, 0x00, 0x00, 0x00, 0x00, 0x00, 
	0x26, 0x00, 0x00, 0x00, 0x00, 0x00, 0x00, 0x00, 0x26, 0x00, 0x00, 0x00, 
	0x00, 0x00, 0x00, 0x00, 0x25, 0x00, 0x00, 0x00, 0x00, 0x00, 0x00, 0x00, 
	0x26, 0x00, 0x00, 0x00, 0x00, 0x00, 0x00, 0x00, 0x26, 0x00, 0x00, 0x00, 
	0x00, 0x00, 0x00, 0x00, 0x25, 0x00, 0x00, 0x00, 0x00, 0x00, 0x00, 0x00, 
	0x26, 0x00, 0x00, 0x00, 0x00, 0x00, 0x00, 0x00, 0x25, 0x00, 0x00, 0x00, 
	0x00, 0x00, 0x00, 0x00, 0x25, 0x00, 0x00, 0x00, 0x00, 0x00, 0x00, 0x00, 
	0x26, 0x00, 0x00, 0x00, 0x00, 0x00, 0x00, 0x00, 0x25, 0x00, 0x00, 0x00, 
	0x00, 0x00, 0x00, 0x00, 0x25, 0x00, 0x00, 0x00, 0x00, 0x00, 0x00, 0x00, 
	0x25, 0x00, 0x00, 0x00, 0x00, 0x00, 0x00, 0x00, 0x26, 0x00, 0x00, 0x00, 
	0x00, 0x00, 0x00, 0x00, 0x25, 0x00, 0x00, 0x00, 0x00, 0x00, 0x00, 0x00, 
	0x25, 0x00, 0x00, 0x00, 0x00, 0x00, 0x00, 0x00, 0x26, 0x00, 0x00, 0x00, 
	0x00, 0x00, 0x00, 0x00, 0x25, 0x00, 0x00, 0x00, 0x00, 0x00, 0x00, 0x00, 
	0x26, 0x00, 0x00, 0x00, 0x00, 0x00, 0x00, 0x00, 0x25, 0x00, 0x00, 0x00, 
	0x00, 0x00, 0x00, 0x00, 0x26, 0x00, 0x00, 0x00, 0x00, 0x00, 0x00, 0x00, 
	0x26, 0x00, 0x00, 0x00, 0x00, 0x00, 0x00, 0x00, 0x26, 0x00, 0x00, 0x00, 
	0x00, 0x00, 0x00, 0x00, 0x25, 0x00, 0x00, 0x00, 0x00, 0x00, 0x00, 0x00, 
	0x26, 0x00, 0x00, 0x00, 0x00, 0x00, 0x00, 0x00, 0x25, 0x00, 0x00, 0x00, 
	0x00, 0x00, 0x00, 0x00, 0x25, 0x00, 0x00, 0x00, 0x00, 0x00, 0x00, 0x00, 
	0x25, 0x00, 0x00, 0x00, 0x00, 0x00, 0x00, 0x00, 0x26, 0x00, 0x00, 0x00, 
	0x00, 0x00, 0x00, 0x00, 0x26, 0x00, 0x00, 0x00, 0x00, 0x00, 0x00, 0x00, 
	0x25, 0x00, 0x00, 0x00, 0x00, 0x00, 0x00, 0x00, 0x25, 0x00, 0x00, 0x00, 
	0x00, 0x00, 0x00, 0x00, 0x25, 0x00, 0x00, 0x00, 0x00, 0x00, 0x00, 0x00, 
	0x25, 0x00, 0x00, 0x00, 0x00, 0x00, 0x00, 0x00, 0x25, 0x00, 0x00, 0x00, 
	0x00, 0x00, 0x00, 0x00, 0x26, 0x00, 0x00, 0x00, 0x00, 0x00, 0x00, 0x00, 
	0x25, 0x00, 0x00, 0x00, 0x00, 0x00, 0x00, 0x00, 0x25, 0x00, 0x00, 0x00, 
	0x00, 0x00, 0x00, 0x00, 0x24, 0x00, 0x00, 0x00, 0x00, 0x00, 0x00, 0x00, 
	0x24, 0x00, 0x00, 0x00, 0x00, 0x00, 0x00, 0x00, 0x25, 0x00, 0x00, 0x00, 
	0x00, 0x00, 0x00, 0x00, 
// "p107": 
	0xFE, 0xFF, 0xED, 0xFF, 0x0C, 0x00, 0x20, 0x00, 0x1E, 0x00, 0x1D, 0x00, 
	0x16, 0x00, 0x28, 0x00, 0xD7, 0xFF, 0xE9, 0xFF, 0xCB, 0xFF, 0x11, 0x00, 
	0x0F, 0x00, 0x0D, 0x00, 0x3A, 0x00, 0xDE, 0xFF, 0x17, 0x00, 0x3D, 0x00, 
	0xED, 0xFF, 0xF8, 0xFF, 0x26, 0x00, 0x12, 0x00, 0x27, 0x00, 0x13, 0x00, 
	0xD0, 0xFF, 0xEC, 0xFF, 0x1F, 0x00, 0x33, 0x00, 0xAA, 0xFF, 0x4A, 0x00, 
	0x40, 0x00, 0x3B, 0x00, 0x7F, 0x00, 0x31, 0x00, 0xD6, 0xFF, 0xEA, 0xFF, 
	0xB6, 0xFF, 0xE2, 0xFF, 0xE9, 0xFF, 0x30, 0x00, 0x37, 0x00, 0xFA, 0xFF, 
	0x6D, 0x00, 0x23, 0x00, 0xF0, 0xFF, 0x05, 0x00, 0xF3, 0xFF, 0xE9, 0xFF, 
	0xBE, 0xFF, 0x43, 0x00, 0xE4, 0xFF, 0x81, 0xFF, 0xF5, 0xFF, 0x16, 0x00, 
	0x05, 0x00, 0x18, 0x00, 0x15, 0x00, 0xFF, 0xFF, 0x11, 0x00, 0xBA, 0xFF, 
	0x1F, 0x00, 0xEA, 0xFF, 0xDC, 0xFF, 0x7C, 0x00, 0xE1, 0xFF, 0x34, 0x00, 
	0x0B, 0x00, 0x1F, 0x00, 0x28, 0x00, 0xCD, 0xFF, 0x4B, 0x00, 0x0C, 0x00, 
	0x27, 0x00, 0xD6, 0xFF, 0xC9, 0xFF, 0xF6, 0xFF, 0xE3, 0xFF, 0xA3, 0xFF, 
	0x34, 0x00, 0x14, 0x00, 0xB4, 0xFF, 0xDA, 0xFF, 0x11, 0x00, 0xC8, 0xFF, 
	0xF3, 0xFF, 0x14, 0x00, 0xDA, 0xFF, 0x3E, 0x00, 0xF5, 0xFF, 0x0F, 0x00, 
	0xD5, 0xFF, 0xE7, 0xFF, 0xF9, 0xFF, 0x07, 0x00, 0x33, 0x00, 0x03, 0x00, 
	0xEC, 0xFF, 0xED, 0xFF, 0x3D, 0x00, 0xFE, 0xFF, 0x1D, 0x00, 0xC3, 0xFF, 
	0x02, 0x00, 0xAF, 0xFF, 0xDB, 0xFF, 0xCF, 0xFF, 0xD7, 0xFF, 0x06, 0x00, 
	0x36, 0x00, 0x0B, 0x00, 0x68, 0x00, 0xD6, 0xFF, 0xF1, 0xFF, 0xF4, 0xFF, 
	0x0D, 0x00, 0x3A, 0x00, 0x20, 0x00, 0xB6, 0xFF, 0x75, 0x00, 0x16, 0x00, 
	0x41, 0x00, 0x17, 0x00, 0x96, 0xFF, 0x27, 0x00, 0x16, 0x00, 0x03, 0x00, 
	0x3B, 0x00, 0xEE, 0xFF, 0x09, 0x00, 0x19, 0x00, 0xD6, 0xFF, 0xC3, 0xFF, 
	0xD4, 0xFF, 0xF9, 0xFF, 0x30, 0x00, 0x09, 0x00, 0x1A, 0x00, 0x21, 0x00, 
	0xF1, 0xFF, 0x06, 0x00, 0x93, 0xFF, 0xF3, 0xFF, 0xDE, 0xFF, 0xEC, 0xFF, 
	0x2E, 0x00, 0xE5, 0xFF, 0x0C, 0x00, 0xE0, 0xFF, 0xF1, 0xFF, 0x38, 0x00, 
	0xCD, 0xFF, 0xE7, 0xFF, 0xEC, 0xFF, 0xE0, 0xFF, 0x12, 0x00, 0xDB, 0xFF, 
	0xDB, 0xFF, 0x84, 0xFF, 0xB8, 0xFF, 0xD9, 0xFF, 0x11, 0x00, 0xF3, 0xFF, 
	0x07, 0x00, 0xF5, 0xFF, 0x4D, 0x00, 0x12, 0x00, 0x0C, 0x00, 0xCB, 0xFF, 
	0xEF, 0xFF, 0x1E, 0x00, 0x30, 0x00, 0x2F, 0x00, 0x20, 0x00, 0x07, 0x00, 
	0xB2, 0xFF, 0xE6, 0xFF, 0x4A, 0x00, 0x12, 0x00, 0x08, 0x00, 0x17, 0x00, 
	0x09, 0x00, 0xE1, 0xFF, 0xD6, 0xFF, 0x10, 0x00, 0x36, 0x00, 0x2A, 0x00, 
	0xA4, 0xFF, 0xD9, 0xFF, 0x25, 0x00, 0xE5, 0xFF, 0xF7, 0xFF, 0x7E, 0x00, 
	0x00, 0x00, 0xE3, 0xFF, 0xED, 0xFF, 0xCA, 0xFF, 0xFF, 0xFF, 0x31, 0x00, 
	0x1E, 0x00, 0x14, 0x00, 0x54, 0x00, 0x13, 0x00, 0x1B, 0x00, 0xE6, 0xFF, 
	0xAB, 0xFF, 0x03, 0x00, 0xC5, 0xFF, 0x1C, 0x00, 0x10, 0x00, 0xC8, 0xFF, 
	0x2E, 0x00, 0xCF, 0xFF, 0x08, 0x00, 0xF4, 0xFF, 0x09, 0x00, 0xE3, 0xFF, 
	0xFC, 0xFF, 0x37, 0x00, 0xE1, 0xFF, 0xB1, 0xFF, 0x04, 0x00, 0x31, 0x00, 
	0x55, 0x00, 0x21, 0x00, 0x78, 0x00, 0xC2, 0xFF, 0x12, 0x00, 0x05, 0x00, 
	0xBE, 0xFF, 0xF4, 0xFF, 0x06, 0x00, 0xE7, 0xFF, 0x24, 0x00, 0xE0, 0xFF, 
	0xF9, 0xFF, 0xC6, 0xFF, 0x03, 0x00, 0x2D, 0x00, 0x07, 0x00, 0x08, 0x00, 
	0x46, 0x00, 0x29, 0x00, 0x1A, 0x00, 0x47, 0x00, 0x0B, 0x00, 0xDC, 0xFF, 
	0x1B, 0x00, 0x30, 0x00, 0x09, 0x00, 0x03, 0x00, 0x06, 0x00, 0x12, 0x00, 
	0x21, 0x00, 0xDB, 0xFF, 0x40, 0x00, 0x44, 0x00, 0x1A, 0x00, 0x2E, 0x00, 
	0xB0, 0xFF, 0x12, 0x00, 0x4B, 0x00, 0xF6, 0xFF, 0xFF, 0xFF, 0xD7, 0xFF, 
	0xFA, 0xFF, 0x52, 0x00, 0xCC, 0xFF, 0xC7, 0xFF, 0x37, 0x00, 0x48, 0x00, 
	0x2B, 0x00, 0xA1, 0xFF, 0xFC, 0xFF, 0xD6, 0xFF, 0x3A, 0x00, 0xF1, 0xFF, 
	0x20, 0x00, 0xE1, 0xFF, 0x41, 0x00, 0xFC, 0xFF, 0xFB, 0xFF, 0x3A, 0x00, 
	0x05, 0x00, 0x18, 0x00, 0xCB, 0xFF, 0xF7, 0xFF, 0xED, 0xFF, 0xDC, 0xFF, 
	0x49, 0x00, 0x3E, 0x00, 0xD2, 0xFF, 0x2C, 0x00, 0x2C, 0x00, 0x11, 0x00, 
	0x0F, 0x00, 0xBB, 0xFF, 0xF9, 0xFF, 0x43, 0x00, 0xFC, 0xFF, 0xAE, 0xFF, 
	0x36, 0x00, 0x3A, 0x00, 0x0A, 0x00, 0x43, 0x00, 0xE3, 0xFF, 0xF0, 0xFF, 
	0x1C, 0x00, 0x11, 0x00, 0xE7, 0xFF, 0x70, 0x00, 0x54, 0x00, 0xF3, 0xFF, 
	0x27, 0x00, 0x01, 0x00, 0xF5, 0xFF, 0xE6, 0xFF, 0x4C, 0x00, 0xF7, 0xFF, 
	0xE3, 0xFF, 0x3B, 0x00, 0x00, 0x00, 0x45, 0x00, 0x21, 0x00, 0xED, 0xFF, 
	0x4E, 0x00, 0x14, 0x00, 0xE1, 0xFF, 0xAC, 0xFF, 0x3F, 0x00, 0x09, 0x00, 
	0x4C, 0x00, 0x25, 0x00, 0xE0, 0xFF, 0xE6, 0xFF, 0x1A, 0x00, 0x01, 0x00, 
	0xD6, 0xFF, 0x33, 0x00, 0xEE, 0xFF, 0x01, 0x00, 0xF5, 0xFF, 0x18, 0x00, 
	0x0C, 0x00, 0xED, 0xFF, 0xD5, 0xFF, 0x10, 0x00, 0xDC, 0xFF, 0x24, 0x00, 
	0xDF, 0xFF, 0xD8, 0xFF, 0xF7, 0xFF, 0x29, 0x00, 0x19, 0x00, 0xE0, 0xFF, 
	0xB4, 0xFF, 0xE9, 0xFF, 0xF5, 0xFF, 0x0C, 0x00, 0x12, 0x00, 0xEE, 0xFF, 
	0xF6, 0xFF, 0x0F, 0x00, 0x2B, 0x00, 0xA1, 0xFF, 0x0F, 0x00, 0x00, 0x00, 
	0x1B, 0x00, 0x27, 0x00, 0x24, 0x00, 0xDE, 0xFF, 0xB7, 0xFF, 0xED, 0xFF, 
	0x26, 0x00, 0xBF, 0xFF, 0xDC, 0xFF, 0x51, 0x00, 0xE9, 0xFF, 0x23, 0x00, 
	0x0A, 0x00, 0x22, 0x00, 0x14, 0x00, 0xFB, 0xFF, 0xD1, 0xFF, 0x8D, 0xFF, 
	0x1B, 0x00, 0xC4, 0xFF, 0x13, 0x00, 0xF8, 0xFF, 0x42, 0x00, 0xD8, 0xFF, 
	0xE7, 0xFF, 0xCA, 0xFF, 0x02, 0x00, 0xFC, 0xFF, 0x2E, 0x00, 0x11, 0x00, 
	0x18, 0x00, 0x16, 0x00, 0xB6, 0xFF, 0xCE, 0xFF, 0x03, 0x00, 0x0C, 0x00, 
	0x2A, 0x00, 0xF9, 0xFF, 0x21, 0x00, 0xF1, 0xFF, 0x8C, 0xFF, 0xDC, 0xFF, 
	0xDC, 0xFF, 0xED, 0xFF, 0x27, 0x00, 0xF6, 0xFF, 0xCE, 0xFF, 0x26, 0x00, 
	0xD9, 0xFF, 0x0C, 0x00, 0x1D, 0x00, 0x14, 0x00, 0x0E, 0x00, 0xC7, 0xFF, 
	0x28, 0x00, 0x34, 0x00, 0xE5, 0xFF, 0xE1, 0xFF, 0xD2, 0xFF, 0x39, 0x00, 
	0xDE, 0xFF, 0xFB, 0xFF, 0x2D, 0x00, 0xDA, 0xFF, 0x17, 0x00, 0xEB, 0xFF, 
	0x28, 0x00, 0x00, 0x00, 0xF9, 0xFF, 0x2A, 0x00, 0x35, 0x00, 0x2F, 0x00, 
	0xFB, 0xFF, 0xE1, 0xFF, 0x4A, 0x00, 0x3E, 0x00, 0xFC, 0xFF, 0xFD, 0xFF, 
	0x16, 0x00, 0xD9, 0xFF, 0xDC, 0xFF, 0x7F, 0x00, 0xEE, 0xFF, 0x22, 0x00, 
	0x3C, 0x00, 0x0B, 0x00, 0x3F, 0x00, 0x09, 0x00, 0xE1, 0xFF, 0x28, 0x00, 
	0xD9, 0xFF, 0x2E, 0x00, 0xFF, 0xFF, 0x26, 0x00, 0xD3, 0xFF, 0x01, 0x00, 
	0x4F, 0x00, 0x52, 0x00, 0x09, 0x00, 0xFA, 0xFF, 0xE7, 0xFF, 0x13, 0x00, 
	0xF5, 0xFF, 0x20, 0x00, 0xF6, 0xFF, 0x1D, 0x00, 0xDA, 0xFF, 0xF2, 0xFF, 
	0x14, 0x00, 0x03, 0x00, 0x53, 0x00, 0xCE, 0xFF, 0x47, 0x00, 0xED, 0xFF, 
	0xDA, 0xFF, 0xE4, 0xFF, 0xD3, 0xFF, 0x06, 0x00, 0x0E, 0x00, 0x36, 0x00, 
	0xFB, 0xFF, 0x03, 0x00, 0xF9, 0xFF, 0x2C, 0x00, 0x06, 0x00, 0xDA, 0xFF, 
	0x5A, 0x00, 0xEE, 0xFF, 0x0C, 0x00, 0xEF, 0xFF, 0x1F, 0x00, 0x1C, 0x00, 
	0x19, 0x00, 0x5A, 0x00, 0x2A, 0x00, 0x10, 0x00, 0x01, 0x00, 0x0F, 0x00, 
	0xD6, 0xFF, 0x12, 0x00, 0xEA, 0xFF, 0x29, 0x00, 0x03, 0x00, 0x0F, 0x00, 
	0x81, 0xFF, 0x06, 0x00, 0x07, 0x00, 0xFB, 0xFF, 0x13, 0x00, 0x2C, 0x00, 
	0xF9, 0xFF, 0xD7, 0xFF, 0x19, 0x00, 0xF7, 0xFF, 0xDB, 0xFF, 0xDE, 0xFF, 
	0x12, 0x00, 0x19, 0x00, 0x43, 0x00, 0x0A, 0x00, 0xDB, 0xFF, 0xDE, 0xFF, 
	0x08, 0x00, 0x11, 0x00, 0xFF, 0xFF, 0xE4, 0xFF, 0x12, 0x00, 0x44, 0x00, 
	0x1A, 0x00, 0xDB, 0xFF, 0x09, 0x00, 0x0F, 0x00, 0x06, 0x00, 0x14, 0x00, 
	0xCE, 0xFF, 0x01, 0x00, 0xE5, 0xFF, 0x02, 0x00, 0x01, 0x00, 0xDA, 0xFF, 
	0x07, 0x00, 0x23, 0x00, 0x1D, 0x00, 0xDA, 0xFF, 0xE5, 0xFF, 0x18, 0x00, 
	0x00, 0x00, 0xE7, 0xFF, 0x03, 0x00, 0xB6, 0xFF, 0x06, 0x00, 0xFA, 0xFF, 
	0x00, 0x00, 0xB6, 0xFF, 0xEA, 0xFF, 0x13, 0x00, 0x03, 0x00, 0x12, 0x00, 
	0x1C, 0x00, 0x0B, 0x00, 0x01, 0x00, 0xF5, 0xFF, 0x2D, 0x00, 0xD6, 0xFF, 
	0xE9, 0xFF, 0x03, 0x00, 0xEA, 0xFF, 0x57, 0x00, 0x03, 0x00, 0xC2, 0xFF, 
	0x2D, 0x00, 0x1D, 0x00, 0xEE, 0xFF, 0xB1, 0xFF, 0xFB, 0xFF, 0x0A, 0x00, 
	0x3A, 0x00, 0xC5, 0xFF, 0xE2, 0xFF, 0xD2, 0xFF, 0x24, 0x00, 0x04, 0x00, 
	0xB5, 0xFF, 0xEA, 0xFF, 0x11, 0x00, 0x04, 0x00, 0x24, 0x00, 0xF6, 0xFF, 
	0x3B, 0x00, 0x21, 0x00, 0x92, 0xFF, 0x06, 0x00, 0x29, 0x00, 0x05, 0x00, 
	0xFC, 0xFF, 0xED, 0xFF, 0xE8, 0xFF, 0x06, 0x00, 0x2A, 0x00, 0x15, 0x00, 
	0xF9, 0xFF, 0xD1, 0xFF, 0xDB, 0xFF, 0xE3, 0xFF, 0xCA, 0xFF, 0xDC, 0xFF, 
	0xE4, 0xFF, 0x03, 0x00, 0x02, 0x00, 0xD8, 0xFF, 0x11, 0x00, 0xD3, 0xFF, 
	0x26, 0x00, 0xE0, 0xFF, 0x05, 0x00, 0x33, 0x00, 0xEC, 0xFF, 0xE5, 0xFF, 
	0xDB, 0xFF, 0x05, 0x00, 0x11, 0x00, 0x17, 0x00, 0xF0, 0xFF, 0xF1, 0xFF, 
	0xB8, 0xFF, 0xF5, 0xFF, 0xE4, 0xFF, 0xDF, 0xFF, 0x22, 0x00, 0xD8, 0xFF, 
	0xF4, 0xFF, 0x16, 0x00, 0xD3, 0xFF, 0xA9, 0xFF, 0xEB, 0xFF, 0xED, 0xFF, 
	0x08, 0x00, 0xE3, 0xFF, 0x13, 0x00, 0x42, 0x00, 0x29, 0x00, 0x49, 0x00, 
	0x2D, 0x00, 0x22, 0x00, 0xDD, 0xFF, 0xDE, 0xFF, 0xD4, 0xFF, 0x26, 0x00, 
	0xE4, 0xFF, 0x0C, 0x00, 0x06, 0x00, 0xFD, 0xFF, 0x02, 0x00, 0x00, 0x00, 
	0xE5, 0xFF, 0xFE, 0xFF, 0xEC, 0xFF, 0xF2, 0xFF, 0x15, 0x00, 0x19, 0x00, 
	0xE7, 0xFF, 0xFC, 0xFF, 0x33, 0x00, 0x12, 0x00, 0xF2, 0xFF, 0xD9, 0xFF, 
	0xD9, 0xFF, 0x0B, 0x00, 0x19, 0x00, 0x2F, 0x00, 0x2C, 0x00, 0x0F, 0x00, 
	0x2B, 0x00, 0xC3, 0xFF, 0x03, 0x00, 0x04, 0x00, 0x05, 0x00, 0xD1, 0xFF, 
	0xCF, 0xFF, 0x16, 0x00, 0x7C, 0x00, 0x0A, 0x00, 0xE2, 0xFF, 0x81, 0xFF, 
	0x97, 0xFF, 0x5C, 0x00, 0x8E, 0xFF, 0x3D, 0x00, 0x30, 0x00, 0x7D, 0x00, 
	0x58, 0x00, 0xFD, 0xFF, 0xE7, 0xFF, 0xFB, 0xFF, 0x23, 0x00, 0x47, 0x00, 
	0x07, 0x00, 0xC3, 0xFF, 0xFA, 0xFF, 0x1E, 0x00, 0x0E, 0x00, 0x34, 0x00, 
	0x01, 0x00, 0x04, 0x00, 0x31, 0x00, 0x23, 0x00, 0xE8, 0xFF, 0xF7, 0xFF, 
	0x22, 0x00, 0x47, 0x00, 0xCD, 0xFF, 0xD8, 0xFF, 0xD6, 0xFF, 0x36, 0x00, 
	0x1C, 0x00, 0x0A, 0x00, 0x09, 0x00, 0xA2, 0xFF, 0xC2, 0xFF, 0x19, 0x00, 
	0xEB, 0xFF, 0xE1, 0xFF, 0xEA, 0xFF, 0x20, 0x00, 0x03, 0x00, 0xD1, 0xFF, 
	0x26, 0x00, 0x06, 0x00, 0x11, 0x00, 0x31, 0x00, 0x2B, 0x00, 0x42, 0x00, 
	0xF8, 0xFF, 0xF8, 0xFF, 0x35, 0x00, 0xCC, 0xFF, 0xD5, 0xFF, 0x13, 0x00, 
	0xFC, 0xFF, 0xF2, 0xFF, 0x04, 0x00, 0xE5, 0xFF, 0xA2, 0xFF, 0x0E, 0x00, 
	0xF5, 0xFF, 0xEE, 0xFF, 0x05, 0x00, 0x22, 0x00, 0x0A, 0x00, 0xDC, 0xFF, 
	0x4F, 0x00, 0x60, 0x00, 0xE0, 0xFF, 0xD3, 0xFF, 0xE4, 0xFF, 0x03, 0x00, 
	0x0F, 0x00, 0x0E, 0x00, 0x0E, 0x00, 0xD6, 0xFF, 0xCE, 0xFF, 0x04, 0x00, 
	0xFB, 0xFF, 0xE3, 0xFF, 0x5E, 0x00, 0xE1, 0xFF, 0xE8, 0xFF, 0xFD, 0xFF, 
	0xC1, 0xFF, 0xAB, 0xFF, 0xF0, 0xFF, 0x10, 0x00, 0x13, 0x00, 0x3A, 0x00, 
	0x5D, 0x00, 0x27, 0x00, 0x0B, 0x00, 0xED, 0xFF, 0x10, 0x00, 0xEC, 0xFF, 
	0x1B, 0x00, 0x1B, 0x00, 0xEE, 0xFF, 0xCC, 0xFF, 0x3C, 0x00, 0xF1, 0xFF, 
	0x39, 0x00, 0x2C, 0x00, 0x81, 0xFF, 0xAC, 0xFF, 0x1D, 0x00, 0xED, 0xFF, 
	0xD0, 0xFF, 0xF0, 0xFF, 0x20, 0x00, 0xD9, 0xFF, 0xB8, 0xFF, 0x49, 0x00, 
	0x16, 0x00, 0x15, 0x00, 0x32, 0x00, 0x3D, 0x00, 0x40, 0x00, 0xFD, 0xFF, 
	0x9B, 0xFF, 0x1E, 0x00, 0xD6, 0xFF, 0x39, 0x00, 0x1A, 0x00, 0x63, 0x00, 
	0x2B, 0x00, 0xE9, 0xFF, 0x1C, 0x00, 0x2B, 0x00, 0xCE, 0xFF, 0x09, 0x00, 
	0xFD, 0xFF, 0xD4, 0xFF, 0xF6, 0xFF, 0x16, 0x00, 0xFB, 0xFF, 0x17, 0x00, 
	0x0F, 0x00, 0x19, 0x00, 0xED, 0xFF, 0xF9, 0xFF, 0xC6, 0xFF, 0x30, 0x00, 
	0xC5, 0xFF, 0x2E, 0x00, 0x27, 0x00, 0x1C, 0x00, 0xAD, 0xFF, 0xFA, 0xFF, 
	0x17, 0x00, 0xF9, 0xFF, 0xFA, 0xFF, 0xB6, 0xFF, 0xED, 0xFF, 0x24, 0x00, 
	0xB1, 0xFF, 0xB8, 0xFF, 0xB6, 0xFF, 0xF3, 0xFF, 0x05, 0x00, 0xD7, 0xFF, 
	0x38, 0x00, 0xBB, 0xFF, 0xC8, 0xFF, 0xF1, 0xFF, 0xEF, 0xFF, 0xEE, 0xFF, 
	0xE4, 0xFF, 0xFA, 0xFF, 0x17, 0x00, 0x14, 0x00, 0xD2, 0xFF, 0x29, 0x00, 
	0x38, 0x00, 0x1B, 0x00, 0x1C, 0x00, 0x03, 0x00, 0x81, 0xFF, 0x1E, 0x00, 
	0xE9, 0xFF, 0xF8, 0xFF, 0xEC, 0xFF, 0xF8, 0xFF, 0x04, 0x00, 0x06, 0x00, 
	0x2C, 0x00, 0x0B, 0x00, 0x23, 0x00, 0x0A, 0x00, 0x10, 0x00, 0xA6, 0xFF, 
	0x13, 0x00, 0x1F, 0x00, 0xB4, 0xFF, 0xB6, 0xFF, 0xF9, 0xFF, 0x11, 0x00, 
	0xDE, 0xFF, 0x31, 0x00, 0xC3, 0xFF, 0xC1, 0xFF, 0x02, 0x00, 0x0D, 0x00, 
	0x3E, 0x00, 0x3C, 0x00, 0xEE, 0xFF, 0x0C, 0x00, 0xEC, 0xFF, 0x0B, 0x00, 
	0xC1, 0xFF, 0x3D, 0x00, 0xB3, 0xFF, 0xFF, 0xFF, 0xF8, 0xFF, 0xC5, 0xFF, 
	0x14, 0x00, 0x35, 0x00, 0xE1, 0xFF, 0xDD, 0xFF, 0xBA, 0xFF, 0x4C, 0x00, 
	0x3A, 0x00, 0x29, 0x00, 0x31, 0x00, 0x00, 0x00, 0x45, 0x00, 0xCC, 0xFF, 
	0x16, 0x00, 0xA3, 0xFF, 0xF7, 0xFF, 0x10, 0x00, 0x10, 0x00, 0xFE, 0xFF, 
	0xCE, 0xFF, 0x62, 0x00, 0xDE, 0xFF, 0x5C, 0x00, 0xDC, 0xFF, 0x04, 0x00, 
	0x0F, 0x00, 0x39, 0x00, 0x33, 0x00, 0xC4, 0xFF, 0x35, 0x00, 0x0A, 0x00, 
	0x05, 0x00, 0x1B, 0x00, 0x07, 0x00, 0xC6, 0xFF, 0xFA, 0xFF, 0x20, 0x00, 
	0x4E, 0x00, 0x49, 0x00, 0x1F, 0x00, 0x06, 0x00, 0xB3, 0xFF, 0xD5, 0xFF, 
	0xCB, 0xFF, 0x09, 0x00, 0xCE, 0xFF, 0x30, 0x00, 0xAE, 0xFF, 0x27, 0x00, 
	0x19, 0x00, 0xE4, 0xFF, 0xD0, 0xFF, 0x47, 0x00, 0xC7, 0xFF, 0x1A, 0x00, 
	0x32, 0x00, 0xF2, 0xFF, 0x0E, 0x00, 0x63, 0x00, 0xE6, 0xFF, 0xFB, 0xFF, 
	0xE1, 0xFF, 0x1F, 0x00, 0x08, 0x00, 0xFA, 0xFF, 0xC8, 0xFF, 0xFE, 0xFF, 
	0x36, 0x00, 0x32, 0x00, 0xFC, 0xFF, 0x08, 0x00, 0xC9, 0xFF, 0x07, 0x00, 
	0x23, 0x00, 0xD3, 0xFF, 0x29, 0x00, 0xFF, 0xFF, 0xDD, 0xFF, 0x50, 0x00, 
	0xEB, 0xFF, 0xF0, 0xFF, 0xE2, 0xFF, 0x21, 0x00, 0x3E, 0x00, 0xE1, 0xFF, 
	0x23, 0x00, 0x17, 0x00, 0x12, 0x00, 0x0D, 0x00, 0x15, 0x00, 0x32, 0x00, 
	0xD9, 0xFF, 0xF2, 0xFF, 0x0C, 0x00, 0x12, 0x00, 0xBA, 0xFF, 0xC3, 0xFF, 
	0xE2, 0xFF, 0x3E, 0x00, 0x01, 0x00, 0x16, 0x00, 0x1F, 0x00, 0xFC, 0xFF, 
	0x03, 0x00, 0x14, 0x00, 0x0E, 0x00, 0x3D, 0x00, 0x2E, 0x00, 0x39, 0x00, 
	0xD5, 0xFF, 0xE3, 0xFF, 0xE7, 0xFF, 0x38, 0x00, 0x27, 0x00, 0x4D, 0x00, 
	0x9D, 0xFF, 0xB7, 0xFF, 0x32, 0x00, 0x3F, 0x00, 0x2B, 0x00, 0xF8, 0xFF, 
	0xC3, 0xFF, 0x26, 0x00, 0x27, 0x00, 0xE1, 0xFF, 0xD7, 0xFF, 0x1A, 0x00, 
	0x04, 0x00, 0x0C, 0x00, 0x2C, 0x00, 0xB4, 0xFF, 0xAC, 0xFF, 0xC4, 0xFF, 
	0xF1, 0xFF, 0xD9, 0xFF, 0xB9, 0xFF, 0xBC, 0xFF, 0xF1, 0xFF, 0xEC, 0xFF, 
	0x1A, 0x00, 0xF6, 0xFF, 0x18, 0x00, 0x3A, 0x00, 0x7F, 0x00, 0x00, 0x00, 
	0x4C, 0x00, 0xB0, 0xFF, 0xE5, 0xFF, 0xD1, 0xFF, 0x34, 0x00, 0x1A, 0x00, 
	0xDC, 0xFF, 0x25, 0x00, 0xDA, 0xFF, 0xE8, 0xFF, 0x0E, 0x00, 0x21, 0x00, 
	0xE9, 0xFF, 0xDF, 0xFF, 0xB9, 0xFF, 0x09, 0x00, 0xF7, 0xFF, 0x2D, 0x00, 
	0x04, 0x00, 0x06, 0x00, 0x26, 0x00, 0x28, 0x00, 0x35, 0x00, 0xE9, 0xFF, 
	0x17, 0x00, 0xDE, 0xFF, 0x19, 0x00, 0x13, 0x00, 0x00, 0x00, 0x03, 0x00, 
	0xEA, 0xFF, 0x15, 0x00, 0xE7, 0xFF, 0x06, 0x00, 0x03, 0x00, 0x40, 0x00, 
	0xF0, 0xFF, 0x11, 0x00, 0xEA, 0xFF, 0x05, 0x00, 0xF6, 0xFF, 0x3B, 0x00, 
	0x31, 0x00, 0x66, 0x00, 0x1A, 0x00, 0x5E, 0x00, 0x5A, 0x00, 0x1D, 0x00, 
	0xEC, 0xFF, 0x0D, 0x00, 0xC8, 0xFF, 0x3A, 0x00, 0xDC, 0xFF, 0x73, 0x00, 
	0x29, 0x00, 0xEE, 0xFF, 0x2A, 0x00, 0xDE, 0xFF, 0xE9, 0xFF, 0x04, 0x00, 
	0x0A, 0x00, 0xB6, 0xFF, 0xF5, 0xFF, 0x0C, 0x00, 0xE0, 0xFF, 0x12, 0x00, 
	0x31, 0x00, 0xE5, 0xFF, 0x50, 0x00, 0xAA, 0xFF, 0x2E, 0x00, 0x01, 0x00, 
	0x51, 0x00, 0xF7, 0xFF, 0xDD, 0xFF, 0xF6, 0xFF, 0x21, 0x00, 0xF4, 0xFF, 
	0x17, 0x00, 0xC4, 0xFF, 0x0A, 0x00, 0x5B, 0x00, 0x18, 0x00, 0x07, 0x00, 
	0x2A, 0x00, 0x02, 0x00, 0x0F, 0x00, 0x16, 0x00, 0x08, 0x00, 0xA7, 0xFF, 
	0xF9, 0xFF, 0xE9, 0xFF, 0x34, 0x00, 0xC5, 0xFF, 0xE0, 0xFF, 0x00, 0x00, 
	0xBF, 0xFF, 0x08, 0x00, 0x34, 0x00, 0x1B, 0x00, 0xD2, 0xFF, 0xBB, 0xFF, 
	0x95, 0xFF, 0x33, 0x00, 0xDD, 0xFF, 0xC6, 0xFF, 0xE5, 0xFF, 0xB0, 0xFF, 
	0x12, 0x00, 0xC6, 0xFF, 0x19, 0x00, 0x20, 0x00, 0xE4, 0xFF, 0xFB, 0xFF, 
	0xD6, 0xFF, 0x2B, 0x00, 0x08, 0x00, 0x07, 0x00, 0x2C, 0x00, 0x02, 0x00, 
	0x20, 0x00, 0x10, 0x00, 0x32, 0x00, 0xFE, 0xFF, 0x49, 0x00, 0x18, 0x00, 
	0xF6, 0xFF, 0x17, 0x00, 0x48, 0x00, 0xE1, 0xFF, 0x3C, 0x00, 0x1C, 0x00, 
	0xD9, 0xFF, 0xE0, 0xFF, 0xC3, 0xFF, 0x15, 0x00, 0x1F, 0x00, 0x11, 0x00, 
	0x02, 0x00, 0xFC, 0xFF, 0xEE, 0xFF, 0x0B, 0x00, 0xA8, 0xFF, 0xE7, 0xFF, 
	0x14, 0x00, 0xC9, 0xFF, 0xD8, 0xFF, 0xBF, 0xFF, 0xB7, 0xFF, 0xDD, 0xFF, 
	0xD2, 0xFF, 0xBE, 0xFF, 0x36, 0x00, 0xDF, 0xFF, 0xD2, 0xFF, 0xAB, 0xFF, 
	0xA5, 0xFF, 0xF7, 0xFF, 0x12, 0x00, 0xE9, 0xFF, 0x09, 0x00, 0x2D, 0x00, 
	0xFE, 0xFF, 0xBC, 0xFF, 0x17, 0x00, 0xF9, 0xFF, 0x02, 0x00, 0xB7, 0xFF, 
	0x33, 0x00, 0x15, 0x00, 0xE8, 0xFF, 0x4B, 0x00, 0x4B, 0x00, 0x13, 0x00, 
	0x01, 0x00, 0xDC, 0xFF, 0xE5, 0xFF, 0xD0, 0xFF, 0xE6, 0xFF, 0xDC, 0xFF, 
	0xEB, 0xFF, 0x44, 0x00, 0x2B, 0x00, 0xE0, 0xFF, 0xC4, 0xFF, 0xD6, 0xFF, 
	0xE5, 0xFF, 0x00, 0x00, 0xEE, 0xFF, 0x07, 0x00, 0x9E, 0xFF, 0x32, 0x00, 
	0xF5, 0xFF, 0x33, 0x00, 0x04, 0x00, 0xC1, 0xFF, 0xFF, 0xFF, 0x39, 0x00, 
	0xFF, 0xFF, 0xBD, 0xFF, 0xFB, 0xFF, 0xC7, 0xFF, 0xD8, 0xFF, 0xC3, 0xFF, 
	0x26, 0x00, 0xBE, 0xFF, 0x35, 0x00, 0xE3, 0xFF, 0x20, 0x00, 0xB8, 0xFF, 
	0xF9, 0xFF, 0x1F, 0x00, 0x03, 0x00, 0x0D, 0x00, 0x09, 0x00, 0x28, 0x00, 
	0xE1, 0xFF, 0xFD, 0xFF, 0xED, 0xFF, 0xFB, 0xFF, 0x2D, 0x00, 0xFC, 0xFF, 
	0x27, 0x00, 0xF6, 0xFF, 0x9A, 0xFF, 0x0F, 0x00, 0x08, 0x00, 0xEC, 0xFF, 
	0x16, 0x00, 0xDE, 0xFF, 0xE5, 0xFF, 0xFE, 0xFF, 0xD2, 0xFF, 0xDA, 0xFF, 
	0xD8, 0xFF, 0xF8, 0xFF, 0x00, 0x00, 0xD8, 0xFF, 0x1E, 0x00, 0xE1, 0xFF, 
	0xF9, 0xFF, 0x2A, 0x00, 0x19, 0x00, 0xE9, 0xFF, 0x1F, 0x00, 0xE9, 0xFF, 
	0xD9, 0xFF, 0xF5, 0xFF, 0xA6, 0xFF, 0x25, 0x00, 0xE2, 0xFF, 0x35, 0x00, 
	0x4A, 0x00, 0xE6, 0xFF, 0xE2, 0xFF, 0x1A, 0x00, 0xDE, 0xFF, 0xBC, 0xFF, 
	0xF7, 0xFF, 0x04, 0x00, 0x4F, 0x00, 0x0F, 0x00, 0x07, 0x00, 0xFB, 0xFF, 
	0xFD, 0xFF, 0xDF, 0xFF, 0x93, 0xFF, 0x0D, 0x00, 0x00, 0x00, 0x09, 0x00, 
	0x3F, 0x00, 0xEE, 0xFF, 0xCB, 0xFF, 0x21, 0x00, 0x0B, 0x00, 0x00, 0x00, 
	0x13, 0x00, 0x4E, 0x00, 0xFF, 0xFF, 0xF8, 0xFF, 0xF7, 0xFF, 0x13, 0x00, 
	0x01, 0x00, 0xED, 0xFF, 0xDF, 0xFF, 0xF3, 0xFF, 0xEF, 0xFF, 0x17, 0x00, 
	0x05, 0x00, 0xD3, 0xFF, 0xD5, 0xFF, 0x3A, 0x00, 0x01, 0x00, 0xCA, 0xFF, 
	0xC9, 0xFF, 0x44, 0x00, 0x0C, 0x00, 0x20, 0x00, 0xD2, 0xFF, 0x2E, 0x00, 
	0x15, 0x00, 0xEA, 0xFF, 0xC6, 0xFF, 0xDB, 0xFF, 0x00, 0x00, 0xF2, 0xFF, 
	0xFA, 0xFF, 0xEC, 0xFF, 0xD6, 0xFF, 0x1B, 0x00, 0x7F, 0x00, 0x3A, 0x00, 
	0xDE, 0xFF, 0xD7, 0xFF, 0xF6, 0xFF, 0xC1, 0xFF, 0xE1, 0xFF, 0x16, 0x00, 
	0x03, 0x00, 0xE1, 0xFF, 0xFA, 0xFF, 0xB1, 0xFF, 0xF8, 0xFF, 0x31, 0x00, 
	0x01, 0x00, 0x3E, 0x00, 0x09, 0x00, 0x11, 0x00, 0xDF, 0xFF, 0x03, 0x00, 
	0x14, 0x00, 0xDA, 0xFF, 0xF7, 0xFF, 0x48, 0x00, 0xDB, 0xFF, 0x13, 0x00, 
	0xDF, 0xFF, 0xEF, 0xFF, 0x22, 0x00, 0x20, 0x00, 0xDB, 0xFF, 0x81, 0xFF, 
	0x39, 0x00, 0xE8, 0xFF, 0xE4, 0xFF, 0xF8, 0xFF, 0x0F, 0x00, 0xCD, 0xFF, 
	0xF0, 0xFF, 0xF8, 0xFF, 0x31, 0x00, 0x39, 0x00, 0x16, 0x00, 0x1B, 0x00, 
	0xBA, 0xFF, 0x09, 0x00, 0xB9, 0xFF, 0xBA, 0xFF, 0x0A, 0x00, 0xD4, 0xFF, 
	0x22, 0x00, 0xDE, 0xFF, 0x01, 0x00, 0x0C, 0x00, 0x1F, 0x00, 0xE9, 0xFF, 
	0x26, 0x00, 0x07, 0x00, 0xBE, 0xFF, 0x1A, 0x00, 0xF2, 0xFF, 0xCC, 0xFF, 
	0x13, 0x00, 0x4B, 0x00, 0x68, 0x00, 0x7F, 0x00, 0x3B, 0x00, 0xA9, 0xFF, 
	0xB9, 0xFF, 0xF1, 0xFF, 0x10, 0x00, 0xD7, 0xFF, 0xF2, 0xFF, 0x0B, 0x00, 
	0x0E, 0x00, 0x09, 0x00, 0xDC, 0xFF, 0x09, 0x00, 0xCF, 0xFF, 0x36, 0x00, 
	0x1D, 0x00, 0xF0, 0xFF, 0xE0, 0xFF, 0x1D, 0x00, 0xF4, 0xFF, 0xEF, 0xFF, 
	0xE0, 0xFF, 0xF0, 0xFF, 0xF9, 0xFF, 0x04, 0x00, 0x20, 0x00, 0x1A, 0x00, 
	0x01, 0x00, 0x00, 0x00, 0xBF, 0xFF, 0xAC, 0xFF, 0xE7, 0xFF, 0x3B, 0x00, 
	0xFE, 0xFF, 0x53, 0x00, 0x1B, 0x00, 0x0A, 0x00, 0xE0, 0xFF, 0x57, 0x00, 
	0x1A, 0x00, 0x16, 0x00, 0x06, 0x00, 0x44, 0x00, 0x16, 0x00, 0xCA, 0xFF, 
	0xEF, 0xFF, 0x3A, 0x00, 0xFA, 0xFF, 0x03, 0x00, 0xEB, 0xFF, 0xB8, 0xFF, 
	0xE4, 0xFF, 0x11, 0x00, 0xD2, 0xFF, 0xE0, 0xFF, 0xF2, 0xFF, 0x00, 0x00, 
	0xCB, 0xFF, 0x02, 0x00, 0x1A, 0x00, 0x35, 0x00, 0xC6, 0xFF, 0xBE, 0xFF, 
	0x1B, 0x00, 0x06, 0x00, 0x47, 0x00, 0xFA, 0xFF, 0xC6, 0xFF, 0xD9, 0xFF, 
	0xBB, 0xFF, 0xC2, 0xFF, 0x0B, 0x00, 0x37, 0x00, 0x10, 0x00, 0xBF, 0xFF, 
	0x0A, 0x00, 0x25, 0x00, 0x19, 0x00, 0x3E, 0x00, 0xF3, 0xFF, 0x07, 0x00, 
	0xFC, 0xFF, 0xFD, 0xFF, 0x2B, 0x00, 0xDF, 0xFF, 0xFB, 0xFF, 0x40, 0x00, 
	0xFC, 0xFF, 0x30, 0x00, 0xFB, 0xFF, 0xE9, 0xFF, 0xC0, 0xFF, 0x2F, 0x00, 
	0x29, 0x00, 0x03, 0x00, 0x14, 0x00, 0xF3, 0xFF, 0x3A, 0x00, 0xE1, 0xFF, 
	0xFD, 0xFF, 0xE3, 0xFF, 0xDB, 0xFF, 0x5F, 0x00, 0x22, 0x00, 0x18, 0x00, 
	0x0E, 0x00, 0x22, 0x00, 0xF1, 0xFF, 0x03, 0x00, 0xB2, 0xFF, 0x08, 0x00, 
	0xEF, 0xFF, 0xEE, 0xFF, 0xDB, 0xFF, 0x25, 0x00, 0xFA, 0xFF, 0xF8, 0xFF, 
	0x0B, 0x00, 0xD1, 0xFF, 0xFA, 0xFF, 0x04, 0x00, 0xAA, 0xFF, 0x17, 0x00, 
	0x2B, 0x00, 0xD8, 0xFF, 0xE0, 0xFF, 0x15, 0x00, 0xFD, 0xFF, 0x03, 0x00, 
	0x93, 0xFF, 0xD4, 0xFF, 0x2D, 0x00, 0xCA, 0xFF, 0x3E, 0x00, 0xE9, 0xFF, 
	0x7F, 0x00, 0x00, 0x00, 0x1E, 0x00, 0xC8, 0xFF, 0xCA, 0xFF, 0xC9, 0xFF, 
	0xC2, 0xFF, 0x3A, 0x00, 0xF5, 0xFF, 0x02, 0x00, 0x02, 0x00, 0xFE, 0xFF, 
	0x03, 0x00, 0xFB, 0xFF, 0x00, 0x00, 0xFB, 0xFF, 0x02, 0x00, 0x00, 0x00, 
	0x04, 0x00, 0xFA, 0xFF, 0xFF, 0xFF, 0xF9, 0xFF, 0xF9, 0xFF, 0x00, 0x00, 
	0xF9, 0xFF, 0x04, 0x00, 0xFE, 0xFF, 0xFF, 0xFF, 0xFD, 0xFF, 0xFB, 0xFF, 
	0xFB, 0xFF, 0x04, 0x00, 0x06, 0x00, 0x04, 0x00, 0x03, 0x00, 0xFC, 0xFF, 
	0xD6, 0xFF, 0xBD, 0xFF, 0xD9, 0xFF, 0xD0, 0xFF, 0x20, 0x00, 0x14, 0x00, 
	0xCA, 0xFF, 0xD0, 0xFF, 0xF2, 0xFF, 0x7F, 0x00, 0x05, 0x00, 0x44, 0x00, 
	0x1F, 0x00, 0xD0, 0xFF, 0xD7, 0xFF, 0x1E, 0x00, 0xE2, 0xFF, 0xED, 0xFF, 
	0xEE, 0xFF, 0xC7, 0xFF, 0x27, 0x00, 0x05, 0x00, 0xDD, 0xFF, 0x48, 0x00, 
	0xF8, 0xFF, 0xBA, 0xFF, 0x04, 0x00, 0x1B, 0x00, 0x11, 0x00, 0x12, 0x00, 
	0x13, 0x00, 0x4E, 0x00, 0x1F, 0x00, 0xDE, 0xFF, 0xEA, 0xFF, 0x24, 0x00, 
	0x2A, 0x00, 0x10, 0x00, 0xEE, 0xFF, 0x2F, 0x00, 0xDB, 0xFF, 0x2F, 0x00, 
	0x26, 0x00, 0xD8, 0xFF, 0x25, 0x00, 0x00, 0x00, 0xD9, 0xFF, 0x87, 0xFF, 
	0x26, 0x00, 0x21, 0x00, 0x0B, 0x00, 0x1A, 0x00, 0x31, 0x00, 0xD0, 0xFF, 
	0xD4, 0xFF, 0xF9, 0xFF, 0xFC, 0xFF, 0xF0, 0xFF, 0x15, 0x00, 0xBB, 0xFF, 
	0xED, 0xFF, 0xF0, 0xFF, 0x48, 0x00, 0xF7, 0xFF, 0x89, 0xFF, 0x06, 0x00, 
	0x04, 0x00, 0x39, 0x00, 0xEA, 0xFF, 0xD5, 0xFF, 0x04, 0x00, 0xF1, 0xFF, 
	0xDB, 0xFF, 0xEB, 0xFF, 0x14, 0x00, 0x4E, 0x00, 0xCE, 0xFF, 0xE3, 0xFF, 
	0xFB, 0xFF, 0xF9, 0xFF, 0xC1, 0xFF, 0xFE, 0xFF, 0xFE, 0xFF, 0xC1, 0xFF, 
	0xE5, 0xFF, 0xC9, 0xFF, 0x19, 0x00, 0x19, 0x00, 0xEE, 0xFF, 0x10, 0x00, 
	0xD5, 0xFF, 0x18, 0x00, 0xE8, 0xFF, 0x23, 0x00, 0xF1, 0xFF, 0x0F, 0x00, 
	0x0A, 0x00, 0xA4, 0xFF, 0xE0, 0xFF, 0x2A, 0x00, 0xD8, 0xFF, 0x99, 0xFF, 
	0x09, 0x00, 0xEE, 0xFF, 0x21, 0x00, 0xC6, 0xFF, 0xFA, 0xFF, 0xE1, 0xFF, 
	0x53, 0x00, 0x04, 0x00, 0x18, 0x00, 0xC9, 0xFF, 0x0B, 0x00, 0x66, 0x00, 
	0x1F, 0x00, 0x96, 0xFF, 0xFF, 0xFF, 0x17, 0x00, 0x35, 0x00, 0xD6, 0xFF, 
	0xF3, 0xFF, 0x14, 0x00, 0xEB, 0xFF, 0x30, 0x00, 0x41, 0x00, 0x29, 0x00, 
	0xEB, 0xFF, 0x06, 0x00, 0xFD, 0xFF, 0x1C, 0x00, 0xF0, 0xFF, 0xF0, 0xFF, 
	0x3E, 0x00, 0x67, 0x00, 0x38, 0x00, 0xDA, 0xFF, 0xDA, 0xFF, 0x01, 0x00, 
	0xE8, 0xFF, 0x1F, 0x00, 0x0A, 0x00, 0x32, 0x00, 0xE7, 0xFF, 0xFD, 0xFF, 
	0xF6, 0xFF, 0x0B, 0x00, 0xD5, 0xFF, 0x3C, 0x00, 0x05, 0x00, 0x1C, 0x00, 
	0x06, 0x00, 0x3C, 0x00, 0x02, 0x00, 0x0B, 0x00, 0x26, 0x00, 0x2B, 0x00, 
	0xF8, 0xFF, 0xF8, 0xFF, 0xF6, 0xFF, 0xE3, 0xFF, 0xD7, 0xFF, 0xF5, 0xFF, 
	0xE3, 0xFF, 0xE9, 0xFF, 0xFB, 0xFF, 0x01, 0x00, 0x2F, 0x00, 0xDC, 0xFF, 
	0xEF, 0xFF, 0xD1, 0xFF, 0xFF, 0xFF, 0x00, 0x00, 0x11, 0x00, 0xE7, 0xFF, 
	0x9B, 0xFF, 0xCC, 0xFF, 0x3A, 0x00, 0x03, 0x00, 0xF9, 0xFF, 0x13, 0x00, 
	0x3D, 0x00, 0xE0, 0xFF, 0x02, 0x00, 0x06, 0x00, 0xD8, 0xFF, 0xE5, 0xFF, 
	0x14, 0x00, 0xF6, 0xFF, 0x22, 0x00, 0xE3, 0xFF, 0xED, 0xFF, 0x12, 0x00, 
	0x40, 0x00, 0x1F, 0x00, 0xD5, 0xFF, 0xC6, 0xFF, 0xF0, 0xFF, 0x6C, 0x00, 
	0x50, 0x00, 0x1E, 0x00, 0x29, 0x00, 0x1A, 0x00, 0x97, 0xFF, 0xE3, 0xFF, 
	0xEB, 0xFF, 0x1F, 0x00, 0xD9, 0xFF, 0x40, 0x00, 0x17, 0x00, 0x24, 0x00, 
	0xEC, 0xFF, 0xFB, 0xFF, 0xEF, 0xFF, 0xF0, 0xFF, 0x20, 0x00, 0xD7, 0xFF, 
	0x31, 0x00, 0x58, 0x00, 0xF3, 0xFF, 0xF6, 0xFF, 0x01, 0x00, 0xFF, 0xFF, 
	0x14, 0x00, 0xCB, 0xFF, 0x29, 0x00, 0x23, 0x00, 0xE7, 0xFF, 0x0F, 0x00, 
	0x12, 0x00, 0x06, 0x00, 0x50, 0x00, 0xAA, 0xFF, 0xEC, 0xFF, 0xF8, 0xFF, 
	0xEE, 0xFF, 0xC7, 0xFF, 0xF7, 0xFF, 0x25, 0x00, 0x1E, 0x00, 0x94, 0xFF, 
	0x03, 0x00, 0x18, 0x00, 0xE6, 0xFF, 0xBC, 0xFF, 0x15, 0x00, 0x25, 0x00, 
	0x3B, 0x00, 0x00, 0x00, 0xF7, 0xFF, 0x09, 0x00, 0x0B, 0x00, 0x1B, 0x00, 
	0xC5, 0xFF, 0x31, 0x00, 0xEF, 0xFF, 0x17, 0x00, 0x53, 0x00, 0x17, 0x00, 
	0xCC, 0xFF, 0x37, 0x00, 0xE1, 0xFF, 0xFF, 0xFF, 0x3B, 0x00, 0xB3, 0xFF, 
	0xE2, 0xFF, 0xDF, 0xFF, 0x0F, 0x00, 0x04, 0x00, 0x14, 0x00, 0x37, 0x00, 
	0xF9, 0xFF, 0x5C, 0x00, 0x08, 0x00, 0x11, 0x00, 0xB7, 0xFF, 0xEE, 0xFF, 
	0xD8, 0xFF, 0xF4, 0xFF, 0x35, 0x00, 0x3C, 0x00, 0xF9, 0xFF, 0x23, 0x00, 
	0x23, 0x00, 0x94, 0xFF, 0xB3, 0xFF, 0x09, 0x00, 0xD5, 0xFF, 0x0A, 0x00, 
	0x37, 0x00, 0x3A, 0x00, 0xF4, 0xFF, 0x2E, 0x00, 0xED, 0xFF, 0x03, 0x00, 
	0x21, 0x00, 0x0A, 0x00, 0x0B, 0x00, 0xD3, 0xFF, 0xD6, 0xFF, 0x34, 0x00, 
	0x11, 0x00, 0x2C, 0x00, 0x07, 0x00, 0x1D, 0x00, 0xF2, 0xFF, 0x23, 0x00, 
	0x47, 0x00, 0x1A, 0x00, 0x00, 0x00, 0x0A, 0x00, 0xF7, 0xFF, 0xF3, 0xFF, 
	0x17, 0x00, 0x0A, 0x00, 0xD4, 0xFF, 0xE1, 0xFF, 0xE5, 0xFF, 0x04, 0x00, 
	0x27, 0x00, 0x09, 0x00, 0xF4, 0xFF, 0xDD, 0xFF, 0xBE, 0xFF, 0x1D, 0x00, 
	0x13, 0x00, 0xDE, 0xFF, 0x2E, 0x00, 0xF2, 0xFF, 0x00, 0x00, 0xC9, 0xFF, 
	0xB8, 0xFF, 0xB5, 0xFF, 0x10, 0x00, 0x0C, 0x00, 0xF0, 0xFF, 0xD3, 0xFF, 
	0x37, 0x00, 0x2C, 0x00, 0x8D, 0xFF, 0xDC, 0xFF, 0xE4, 0xFF, 0x41, 0x00, 
	0x1A, 0x00, 0x1E, 0x00, 0x13, 0x00, 0x76, 0x00, 0xEF, 0xFF, 0xF6, 0xFF, 
	0x0B, 0x00, 0xC1, 0xFF, 0x14, 0x00, 0x34, 0x00, 0xD9, 0xFF, 0xC1, 0xFF, 
	0xBD, 0xFF, 0x11, 0x00, 0xD0, 0xFF, 0x16, 0x00, 0x2E, 0x00, 0x05, 0x00, 
	0xE2, 0xFF, 0xFF, 0xFF, 0xF4, 0xFF, 0xDB, 0xFF, 0xF0, 0xFF, 0x1C, 0x00, 
	0xFE, 0xFF, 0x0C, 0x00, 0xB2, 0xFF, 0x0F, 0x00, 0x54, 0x00, 0x38, 0x00, 
	0x1F, 0x00, 0xF7, 0xFF, 0x24, 0x00, 0xEF, 0xFF, 0x0E, 0x00, 0x28, 0x00, 
	0x05, 0x00, 0x46, 0x00, 0x1D, 0x00, 0x12, 0x00, 0x12, 0x00, 0x27, 0x00, 
	0xF0, 0xFF, 0x20, 0x00, 0x26, 0x00, 0x20, 0x00, 0xFB, 0xFF, 0x02, 0x00, 
	0xC1, 0xFF, 0x26, 0x00, 0x0B, 0x00, 0xFF, 0xFF, 0x1F, 0x00, 0xE2, 0xFF, 
	0xCF, 0xFF, 0x0C, 0x00, 0x25, 0x00, 0xED, 0xFF, 0x26, 0x00, 0xFA, 0xFF, 
	0xED, 0xFF, 0xF5, 0xFF, 0x33, 0x00, 0x1C, 0x00, 0xD0, 0xFF, 0x1D, 0x00, 
	0xF2, 0xFF, 0x2D, 0x00, 0x12, 0x00, 0xF9, 0xFF, 0xED, 0xFF, 0x33, 0x00, 
	0x23, 0x00, 0x15, 0x00, 0xF0, 0xFF, 0x19, 0x00, 0xD9, 0xFF, 0x3B, 0x00, 
	0x04, 0x00, 0xE3, 0xFF, 0x34, 0x00, 0x31, 0x00, 0xFE, 0xFF, 0xBE, 0xFF, 
	0xD9, 0xFF, 0x31, 0x00, 0x4C, 0x00, 0xDD, 0xFF, 0x3B, 0x00, 0xD9, 0xFF, 
	0x26, 0x00, 0x2E, 0x00, 0x41, 0x00, 0xE1, 0xFF, 0xDD, 0xFF, 0xF3, 0xFF, 
	0x59, 0x00, 0xF8, 0xFF, 0xFF, 0xFF, 0xF4, 0xFF, 0xAF, 0xFF, 0xB2, 0xFF, 
	0x1D, 0x00, 0xCD, 0xFF, 0x47, 0x00, 0x25, 0x00, 0xF9, 0xFF, 0x29, 0x00, 
	0x09, 0x00, 0xF2, 0xFF, 0x1A, 0x00, 0x0F, 0x00, 0x04, 0x00, 0x27, 0x00, 
	0xEE, 0xFF, 0xEE, 0xFF, 0xE8, 0xFF, 0x05, 0x00, 0xC7, 0xFF, 0xFE, 0xFF, 
	0x19, 0x00, 0x17, 0x00, 0x38, 0x00, 0x44, 0x00, 0xCA, 0xFF, 0x19, 0x00, 
	0xCB, 0xFF, 0xCC, 0xFF, 0xFF, 0xFF, 0x1F, 0x00, 0x01, 0x00, 0x21, 0x00, 
	0xFB, 0xFF, 0xB6, 0xFF, 0xEC, 0xFF, 0x3C, 0x00, 0x14, 0x00, 0xAB, 0xFF, 
	0xDE, 0xFF, 0x18, 0x00, 0x28, 0x00, 0x43, 0x00, 0x1D, 0x00, 0x3A, 0x00, 
	0x19, 0x00, 0xC4, 0xFF, 0xF7, 0xFF, 0xC1, 0xFF, 0xDF, 0xFF, 0x2A, 0x00, 
	0x52, 0x00, 0xC5, 0xFF, 0xE4, 0xFF, 0x23, 0x00, 0x08, 0x00, 0xDF, 0xFF, 
	0xEC, 0xFF, 0x00, 0x00, 0xD8, 0xFF, 0xF6, 0xFF, 0xEB, 0xFF, 0xFA, 0xFF, 
	0xC7, 0xFF, 0x0A, 0x00, 0xFA, 0xFF, 0xDD, 0xFF, 0xDF, 0xFF, 0x32, 0x00, 
	0x07, 0x00, 0x01, 0x00, 0xFF, 0xFF, 0xE4, 0xFF, 0xE0, 0xFF, 0xE1, 0xFF, 
	0x68, 0x00, 0xF0, 0xFF, 0x05, 0x00, 0x06, 0x00, 0xD5, 0xFF, 0x5F, 0x00, 
	0xE6, 0xFF, 0x54, 0x00, 0xD7, 0xFF, 0x52, 0x00, 0x1F, 0x00, 0xF2, 0xFF, 
	0xF0, 0xFF, 0x19, 0x00, 0x0A, 0x00, 0x2F, 0x00, 0xE4, 0xFF, 0x12, 0x00, 
	0xF8, 0xFF, 0x11, 0x00, 0x07, 0x00, 0x17, 0x00, 0x26, 0x00, 0x08, 0x00, 
	0xD6, 0xFF, 0x50, 0x00, 0x03, 0x00, 0x3D, 0x00, 0xFB, 0xFF, 0xF7, 0xFF, 
	0x15, 0x00, 0x33, 0x00, 0x01, 0x00, 0xFF, 0xFF, 0xDE, 0xFF, 0xE0, 0xFF, 
	0xE1, 0xFF, 0x35, 0x00, 0xD9, 0xFF, 0x00, 0x00, 0x0F, 0x00, 0x04, 0x00, 
	0xEB, 0xFF, 0x99, 0xFF, 0x9D, 0xFF, 0xE8, 0xFF, 0x19, 0x00, 0xD1, 0xFF, 
	0x01, 0x00, 0xC5, 0xFF, 0xF3, 0xFF, 0xA6, 0xFF, 0xB3, 0xFF, 0x23, 0x00, 
	0x1B, 0x00, 0xC5, 0xFF, 0x26, 0x00, 0xEF, 0xFF, 0x5D, 0x00, 0xF6, 0xFF, 
	0x41, 0x00, 0xAC, 0xFF, 0xB6, 0xFF, 0x30, 0x00, 0x65, 0x00, 0xD8, 0xFF, 
	0x0C, 0x00, 0x0E, 0x00, 0x1F, 0x00, 0x32, 0x00, 0x52, 0x00, 0xFD, 0xFF, 
	0xFD, 0xFF, 0x8F, 0xFF, 0xDE, 0xFF, 0x24, 0x00, 0x02, 0x00, 0xF4, 0xFF, 
	0xF5, 0xFF, 0xF5, 0xFF, 0xF6, 0xFF, 0x2C, 0x00, 0x05, 0x00, 0x1F, 0x00, 
	0xCE, 0xFF, 0xCE, 0xFF, 0x2E, 0x00, 0x3E, 0x00, 0xFF, 0xFF, 0xDF, 0xFF, 
	0x02, 0x00, 0x27, 0x00, 0x18, 0x00, 0xD7, 0xFF, 0xDF, 0xFF, 0x0A, 0x00, 
	0xF1, 0xFF, 0xFA, 0xFF, 0xD9, 0xFF, 0xE1, 0xFF, 0xCA, 0xFF, 0x40, 0x00, 
	0x02, 0x00, 0xC8, 0xFF, 0xF9, 0xFF, 0xFE, 0xFF, 0x27, 0x00, 0x0F, 0x00, 
	0x20, 0x00, 0x43, 0x00, 0xEF, 0xFF, 0xCC, 0xFF, 0xF1, 0xFF, 0xD5, 0xFF, 
	0xF8, 0xFF, 0x0D, 0x00, 0x0E, 0x00, 0xDC, 0xFF, 0xD0, 0xFF, 0x6E, 0x00, 
	0xCD, 0xFF, 0xD1, 0xFF, 0x15, 0x00, 0x1E, 0x00, 0xEA, 0xFF, 0xEE, 0xFF, 
	0xFD, 0xFF, 0x0E, 0x00, 0xB6, 0xFF, 0xE6, 0xFF, 0x04, 0x00, 0x39, 0x00, 
	0x22, 0x00, 0x0D, 0x00, 0xF9, 0xFF, 0x1F, 0x00, 0xF2, 0xFF, 0xEA, 0xFF, 
	0xF4, 0xFF, 0xBE, 0xFF, 0x31, 0x00, 0x81, 0xFF, 0x10, 0x00, 0x67, 0x00, 
	0x13, 0x00, 0xB9, 0xFF, 0x05, 0x00, 0x3C, 0x00, 0xCF, 0xFF, 0xC7, 0xFF, 
	0xE9, 0xFF, 0x02, 0x00, 0x6D, 0x00, 0x28, 0x00, 0x35, 0x00, 0xF7, 0xFF, 
	0xAF, 0xFF, 0x4C, 0x00, 0xF4, 0xFF, 0xF1, 0xFF, 0x14, 0x00, 0xFA, 0xFF, 
	0xD7, 0xFF, 0xCB, 0xFF, 0x00, 0x00, 0x22, 0x00, 0x1B, 0x00, 0xED, 0xFF, 
	0x21, 0x00, 0xFA, 0xFF, 0xED, 0xFF, 0xE0, 0xFF, 0xD2, 0xFF, 0xD2, 0xFF, 
	0xDF, 0xFF, 0xD7, 0xFF, 0x16, 0x00, 0x39, 0x00, 0xF6, 0xFF, 0x1F, 0x00, 
	0xF6, 0xFF, 0xF7, 0xFF, 0xDD, 0xFF, 0xC1, 0xFF, 0xAF, 0xFF, 0x0C, 0x00, 
	0xB9, 0xFF, 0xC0, 0xFF, 0x08, 0x00, 0xFA, 0xFF, 0x09, 0x00, 0x3A, 0x00, 
	0xFD, 0xFF, 0x06, 0x00, 0x23, 0x00, 0xE8, 0xFF, 0x28, 0x00, 0xC2, 0xFF, 
	0xE3, 0xFF, 0x21, 0x00, 0xFC, 0xFF, 0x04, 0x00, 0xC8, 0xFF, 0x35, 0x00, 
	0xEB, 0xFF, 0xDE, 0xFF, 0x08, 0x00, 0x11, 0x00, 0xF0, 0xFF, 0x1C, 0x00, 
	0xF7, 0xFF, 0xF0, 0xFF, 0x30, 0x00, 0x40, 0x00, 0xF6, 0xFF, 0xD1, 0xFF, 
	0xFB, 0xFF, 0xF7, 0xFF, 0x15, 0x00, 0xFB, 0xFF, 0xD4, 0xFF, 0x24, 0x00, 
	0xF0, 0xFF, 0x3A, 0x00, 0x2F, 0x00, 0xE4, 0xFF, 0xCD, 0xFF, 0xE9, 0xFF, 
	0xD3, 0xFF, 0x09, 0x00, 0x09, 0x00, 0xB6, 0xFF, 0xB5, 0xFF, 0xF0, 0xFF, 
	0xC6, 0xFF, 0xE8, 0xFF, 0x36, 0x00, 0x1C, 0x00, 0x09, 0x00, 0xD8, 0xFF, 
	0xD5, 0xFF, 0x20, 0x00, 0x1A, 0x00, 0x03, 0x00, 0xE8, 0xFF, 0xD1, 0xFF, 
	0xEF, 0xFF, 0x10, 0x00, 0x2D, 0x00, 0xBF, 0xFF, 0x00, 0x00, 0x45, 0x00, 
	0x7D, 0x00, 0x00, 0x00, 0x41, 0x00, 0x0C, 0x00, 0x01, 0x00, 0x09, 0x00, 
	0x12, 0x00, 0x0A, 0x00, 0x32, 0x00, 0xF6, 0xFF, 0xEE, 0xFF, 0xD6, 0xFF, 
	0x02, 0x00, 0x13, 0x00, 0xB3, 0xFF, 0xD0, 0xFF, 0x85, 0xFF, 0x09, 0x00, 
	0x28, 0x00, 0x1C, 0x00, 0x30, 0x00, 0xF9, 0xFF, 0x99, 0xFF, 0xE5, 0xFF, 
	0x3D, 0x00, 0x26, 0x00, 0x16, 0x00, 0x3E, 0x00, 0x31, 0x00, 0xC9, 0xFF, 
	0xE9, 0xFF, 0x0B, 0x00, 0xF7, 0xFF, 0xED, 0xFF, 0x14, 0x00, 0x2E, 0x00, 
	0x4B, 0x00, 0x16, 0x00, 0xEF, 0xFF, 0x1C, 0x00, 0xD0, 0xFF, 0x13, 0x00, 
	0x16, 0x00, 0xFD, 0xFF, 0xC4, 0xFF, 0x0F, 0x00, 0x1C, 0x00, 0xE9, 0xFF, 
	0x3D, 0x00, 0xD9, 0xFF, 0x11, 0x00, 0x14, 0x00, 0x2D, 0x00, 0x3A, 0x00, 
	0x0E, 0x00, 0xE7, 0xFF, 0xD1, 0xFF, 0x3B, 0x00, 0xCA, 0xFF, 0x20, 0x00, 
	0x1A, 0x00, 0x03, 0x00, 0xDC, 0xFF, 0xD4, 0xFF, 0xA2, 0xFF, 0x17, 0x00, 
	0x8E, 0xFF, 0xF9, 0xFF, 0x0A, 0x00, 0xEC, 0xFF, 0x1C, 0x00, 0xE9, 0xFF, 
	0x47, 0x00, 0xE5, 0xFF, 0xE5, 0xFF, 0xE1, 0xFF, 0xE4, 0xFF, 0xD1, 0xFF, 
	0x34, 0x00, 0xF5, 0xFF, 0xAC, 0xFF, 0xFD, 0xFF, 0x1A, 0x00, 0xA2, 0xFF, 
	0x00, 0x00, 0xFB, 0xFF, 0xEC, 0xFF, 0x40, 0x00, 0xD2, 0xFF, 0xFA, 0xFF, 
	0x08, 0x00, 0x11, 0x00, 0x09, 0x00, 0x0B, 0x00, 0xD0, 0xFF, 0x23, 0x00, 
	0x22, 0x00, 0xD5, 0xFF, 0xFD, 0xFF, 0x26, 0x00, 0xF3, 0xFF, 0x1C, 0x00, 
	0x04, 0x00, 0xCC, 0xFF, 0xF6, 0xFF, 0x44, 0x00, 0x49, 0x00, 0xFC, 0xFF, 
	0xD6, 0xFF, 0x41, 0x00, 0x16, 0x00, 0x0B, 0x00, 0xF0, 0xFF, 0xA3, 0xFF, 
	0x35, 0x00, 0x20, 0x00, 0x3E, 0x00, 0xF8, 0xFF, 0xD7, 0xFF, 0x21, 0x00, 
	0x0E, 0x00, 0xDD, 0xFF, 0x03, 0x00, 0x22, 0x00, 0x81, 0xFF, 0xF6, 0xFF, 
	0x21, 0x00, 0x24, 0x00, 0x3B, 0x00, 0x13, 0x00, 0xD9, 0xFF, 0xE1, 0xFF, 
	0x05, 0x00, 0x11, 0x00, 0x3A, 0x00, 0xF0, 0xFF, 0xAF, 0xFF, 0x1C, 0x00, 
	0x00, 0x00, 0xB3, 0xFF, 0x07, 0x00, 0xFE, 0xFF, 0x2D, 0x00, 0xFA, 0xFF, 
	0xE0, 0xFF, 0x3F, 0x00, 0xF8, 0xFF, 0x13, 0x00, 0x1F, 0x00, 0xFB, 0xFF, 
	0xE6, 0xFF, 0xFD, 0xFF, 0xFE, 0xFF, 0xD2, 0xFF, 0x20, 0x00, 0x39, 0x00, 
	0x2B, 0x00, 0x68, 0x00, 0x31, 0x00, 0x81, 0xFF, 0xF9, 0xFF, 0xF8, 0xFF, 
	0x36, 0x00, 0x01, 0x00, 0xEB, 0xFF, 0x2D, 0x00, 0xDE, 0xFF, 0x13, 0x00, 
	0xFE, 0xFF, 0xEE, 0xFF, 0x06, 0x00, 0x07, 0x00, 0x01, 0x00, 0xC7, 0xFF, 
	0xA6, 0xFF, 0xF8, 0xFF, 0x04, 0x00, 0xFB, 0xFF, 0xEB, 0xFF, 0xBF, 0xFF, 
	0x13, 0x00, 0xEC, 0xFF, 0xF2, 0xFF, 0xDC, 0xFF, 0xDD, 0xFF, 0x22, 0x00, 
	0x08, 0x00, 0xDC, 0xFF, 0xD5, 0xFF, 0x33, 0x00, 0xBA, 0xFF, 0xB8, 0xFF, 
	0xF0, 0xFF, 0x15, 0x00, 0xED, 0xFF, 0xF3, 0xFF, 0x05, 0x00, 0xD4, 0xFF, 
	0x0D, 0x00, 0x08, 0x00, 0x5A, 0x00, 0x07, 0x00, 0xC4, 0xFF, 0xBC, 0xFF, 
	0x09, 0x00, 0xF4, 0xFF, 0x1C, 0x00, 0x2C, 0x00, 0xF9, 0xFF, 0x25, 0x00, 
	0x7F, 0x00, 0xD5, 0xFF, 0x1A, 0x00, 0x0D, 0x00, 0x03, 0x00, 0x1E, 0x00, 
	0x10, 0x00, 0xD0, 0xFF, 0xF6, 0xFF, 0xF4, 0xFF, 0x7F, 0x00, 0x00, 0x00, 
	0xD9, 0xFF, 0x37, 0x00, 0xC6, 0xFF, 0x41, 0x00, 0x44, 0x00, 0x9F, 0xFF, 
	0xFD, 0xFF, 0x23, 0x00, 0xBD, 0xFF, 0x9C, 0xFF, 0x40, 0x00, 0x38, 0x00, 
	0x4E, 0x00, 0x12, 0x00, 0xF3, 0xFF, 0x20, 0x00, 0xE7, 0xFF, 0x13, 0x00, 
	0xF1, 0xFF, 0xC6, 0xFF, 0x0E, 0x00, 0xB3, 0xFF, 0x33, 0x00, 0x1F, 0x00, 
	0x28, 0x00, 0xD5, 0xFF, 0xFB, 0xFF, 0x10, 0x00, 0x35, 0x00, 0xEE, 0xFF, 
	0x93, 0xFF, 0x2B, 0x00, 0xBF, 0xFF, 0x3F, 0x00, 0x1D, 0x00, 0xEB, 0xFF, 
	0x11, 0x00, 0xF3, 0xFF, 0xD1, 0xFF, 0xDE, 0xFF, 0xEA, 0xFF, 0xF8, 0xFF, 
	0xC4, 0xFF, 0xE2, 0xFF, 0xF2, 0xFF, 0xE3, 0xFF, 0xE0, 0xFF, 0x47, 0x00, 
	0x0A, 0x00, 0xD0, 0xFF, 0xE2, 0xFF, 0x18, 0x00, 0xCE, 0xFF, 0xFA, 0xFF, 
	0xCE, 0xFF, 0xFA, 0xFF, 0x25, 0x00, 0xF6, 0xFF, 0x3B, 0x00, 0xF0, 0xFF, 
	0xA3, 0xFF, 0x02, 0x00, 0x1C, 0x00, 0x23, 0x00, 0xEA, 0xFF, 0x09, 0x00, 
	0xF5, 0xFF, 0xD7, 0xFF, 0xBD, 0xFF, 0x19, 0x00, 0x30, 0x00, 0x0B, 0x00, 
	0xF0, 0xFF, 0xCE, 0xFF, 0x1C, 0x00, 0x2D, 0x00, 0xF4, 0xFF, 0xFE, 0xFF, 
	0xE7, 0xFF, 0x32, 0x00, 0x43, 0x00, 0x0F, 0x00, 0xB2, 0xFF, 0x2B, 0x00, 
	0x1B, 0x00, 0x6A, 0x00, 0xC8, 0xFF, 0xCD, 0xFF, 0x79, 0x00, 0x29, 0x00, 
	0x33, 0x00, 0xD4, 0xFF, 0x0D, 0x00, 0x33, 0x00, 0xD1, 0xFF, 0xDB, 0xFF, 
	0xEA, 0xFF, 0xD2, 0xFF, 0xF3, 0xFF, 0x0B, 0x00, 0x41, 0x00, 0xB3, 0xFF, 
	0x24, 0x00, 0x01, 0x00, 0xDE, 0xFF, 0xC4, 0xFF, 0x14, 0x00, 0xE5, 0xFF, 
	0xF6, 0xFF, 0x0B, 0x00, 0xCD, 0xFF, 0xFF, 0xFF, 0xE8, 0xFF, 0xCE, 0xFF, 
	0xF6, 0xFF, 0x0B, 0x00, 0xE2, 0xFF, 0xFB, 0xFF, 0x25, 0x00, 0xF0, 0xFF, 
	0x09, 0x00, 0xEE, 0xFF, 0xE0, 0xFF, 0x48, 0x00, 0xCC, 0xFF, 0xEA, 0xFF, 
	0x11, 0x00, 0xF9, 0xFF, 0x35, 0x00, 0x4F, 0x00, 0xA3, 0xFF, 0xF0, 0xFF, 
	0x11, 0x00, 0x04, 0x00, 0xF8, 0xFF, 0x13, 0x00, 0x27, 0x00, 0x25, 0x00, 
	0x49, 0x00, 0xF2, 0xFF, 0x14, 0x00, 0x01, 0x00, 0x4C, 0x00, 0xD6, 0xFF, 
	0xC5, 0xFF, 0x13, 0x00, 0xA9, 0xFF, 0x42, 0x00, 0xD9, 0xFF, 0xAD, 0xFF, 
	0x36, 0x00, 0x75, 0x00, 0xE0, 0xFF, 0xCB, 0xFF, 0xA1, 0xFF, 0xF7, 0xFF, 
	0xF8, 0xFF, 0x24, 0x00, 0x28, 0x00, 0xFB, 0xFF, 0xEC, 0xFF, 0x0A, 0x00, 
	0xD6, 0xFF, 0xFE, 0xFF, 0xEE, 0xFF, 0x43, 0x00, 0x11, 0x00, 0xD7, 0xFF, 
	0x1D, 0x00, 0x14, 0x00, 0x39, 0x00, 0xBF, 0xFF, 0x30, 0x00, 0x13, 0x00, 
	0x16, 0x00, 0xD6, 0xFF, 0x0C, 0x00, 0xB6, 0xFF, 0xE0, 0xFF, 0x37, 0x00, 
	0xC7, 0xFF, 0xA2, 0xFF, 0x28, 0x00, 0x30, 0x00, 0xFC, 0xFF, 0x01, 0x00, 
	0x4B, 0x00, 0xF0, 0xFF, 0xEF, 0xFF, 0x08, 0x00, 0x04, 0x00, 0xE1, 0xFF, 
	0x58, 0x00, 0xD5, 0xFF, 0xDE, 0xFF, 0x2E, 0x00, 0xE1, 0xFF, 0xE8, 0xFF, 
	0xF6, 0xFF, 0x40, 0x00, 0x0D, 0x00, 0x0B, 0x00, 0xF5, 0xFF, 0x1E, 0x00, 
	0xF9, 0xFF, 0xF0, 0xFF, 0xF6, 0xFF, 0xD2, 0xFF, 0x29, 0x00, 0xC4, 0xFF, 
	0xF8, 0xFF, 0xDA, 0xFF, 0xB5, 0xFF, 0x11, 0x00, 0x00, 0x00, 0x4E, 0x00, 
	0x4A, 0x00, 0x0C, 0x00, 0xC4, 0xFF, 0x0A, 0x00, 0x4C, 0x00, 0xCC, 0xFF, 
	0x01, 0x00, 0xF3, 0xFF, 0x0E, 0x00, 0x2A, 0x00, 0x32, 0x00, 0x15, 0x00, 
	0x21, 0x00, 0xFC, 0xFF, 0xCD, 0xFF, 0xE1, 0xFF, 0xE6, 0xFF, 0xE3, 0xFF, 
	0xEE, 0xFF, 0x19, 0x00, 0x0C, 0x00, 0xF1, 0xFF, 0xD4, 0xFF, 0xEF, 0xFF, 
	0x0A, 0x00, 0xBC, 0xFF, 0x40, 0x00, 0xA0, 0xFF, 0x1E, 0x00, 0x10, 0x00, 
	0xEC, 0xFF, 0xE7, 0xFF, 0x21, 0x00, 0x16, 0x00, 0x16, 0x00, 0xC2, 0xFF, 
	0x10, 0x00, 0xFD, 0xFF, 0x39, 0x00, 0x2A, 0x00, 0x28, 0x00, 0xDB, 0xFF, 
	0xC7, 0xFF, 0xF0, 0xFF, 0x7F, 0x00, 0x05, 0x00, 0xF5, 0xFF, 0x0F, 0x00, 
	0xD4, 0xFF, 0x93, 0xFF, 0x05, 0x00, 0xE9, 0xFF, 0xD6, 0xFF, 0x4D, 0x00, 
	0x1A, 0x00, 0x2F, 0x00, 0xC8, 0xFF, 0xE0, 0xFF, 0xCB, 0xFF, 0xFB, 0xFF, 
	0x52, 0x00, 0xEF, 0xFF, 0xDB, 0xFF, 0xE4, 0xFF, 0xE7, 0xFF, 0x92, 0xFF, 
	0x0B, 0x00, 0x41, 0x00, 0x9D, 0xFF, 0xFF, 0xFF, 0xF2, 0xFF, 0x28, 0x00, 
	0xFF, 0xFF, 0x03, 0x00, 0xFA, 0xFF, 0x01, 0x00, 0xEE, 0xFF, 0x0E, 0x00, 
	0x2A, 0x00, 0xDA, 0xFF, 0xD0, 0xFF, 0x22, 0x00, 0x8C, 0xFF, 0x03, 0x00, 
	0xB4, 0xFF, 0x20, 0x00, 0xE8, 0xFF, 0x0E, 0x00, 0xC9, 0xFF, 0xBD, 0xFF, 
	0xFA, 0xFF, 0x1B, 0x00, 0x30, 0x00, 0xC8, 0xFF, 0x3C, 0x00, 0xE4, 0xFF, 
	0xC8, 0xFF, 0xCD, 0xFF, 0xFE, 0xFF, 0x21, 0x00, 0x54, 0x00, 0xFF, 0xFF, 
	0x03, 0x00, 0x01, 0x00, 0x99, 0xFF, 0x62, 0x00, 0xDD, 0xFF, 0x38, 0x00, 
	0x35, 0x00, 0xEA, 0xFF, 0x6D, 0x00, 0xEE, 0xFF, 0x00, 0x00, 0x05, 0x00, 
	0x0F, 0x00, 0xEB, 0xFF, 0x00, 0x00, 0x38, 0x00, 0x14, 0x00, 0x0D, 0x00, 
	0xF9, 0xFF, 0x01, 0x00, 0x9E, 0xFF, 0x21, 0x00, 0x06, 0x00, 0x0A, 0x00, 
	0x1B, 0x00, 0x04, 0x00, 0xDB, 0xFF, 0xEB, 0xFF, 0x1D, 0x00, 0x18, 0x00, 
	0x2D, 0x00, 0x32, 0x00, 0x19, 0x00, 0xE2, 0xFF, 0xEF, 0xFF, 0x2A, 0x00, 
	0xEF, 0xFF, 0x21, 0x00, 0x01, 0x00, 0x09, 0x00, 0x06, 0x00, 0x17, 0x00, 
	0x02, 0x00, 0xDA, 0xFF, 0x01, 0x00, 0xE8, 0xFF, 0x01, 0x00, 0x0F, 0x00, 
	0xE3, 0xFF, 0x05, 0x00, 0x42, 0x00, 0xDA, 0xFF, 0xAE, 0xFF, 0xFA, 0xFF, 
	0xBC, 0xFF, 0xDD, 0xFF, 0xF6, 0xFF, 0x23, 0x00, 0x03, 0x00, 0xED, 0xFF, 
	0x17, 0x00, 0x00, 0x00, 0x4E, 0x00, 0xB5, 0xFF, 0x42, 0x00, 0xC0, 0xFF, 
	0xDA, 0xFF, 0x0F, 0x00, 0xFD, 0xFF, 0xDC, 0xFF, 0x90, 0xFF, 0x06, 0x00, 
	0x3E, 0x00, 0xCA, 0xFF, 0xFF, 0xFF, 0x2E, 0x00, 0x21, 0x00, 0x7F, 0x00, 
	0xDB, 0xFF, 0xB3, 0xFF, 0x38, 0x00, 0x28, 0x00, 0x0C, 0x00, 0xC4, 0xFF, 
	0xF6, 0xFF, 0xA6, 0xFF, 0x72, 0x00, 0x4F, 0x00, 0xE2, 0xFF, 0xF3, 0xFF, 
	0x0A, 0x00, 0xE7, 0xFF, 0xEE, 0xFF, 0xB7, 0xFF, 0x2F, 0x00, 0x0A, 0x00, 
	0x08, 0x00, 0xEE, 0xFF, 0x2B, 0x00, 0x18, 0x00, 0x47, 0x00, 0x0A, 0x00, 
	0xEB, 0xFF, 0x0F, 0x00, 0xDC, 0xFF, 0x2E, 0x00, 0xD9, 0xFF, 0xBE, 0xFF, 
	0x03, 0x00, 0x0E, 0x00, 0xF8, 0xFF, 0xE1, 0xFF, 0xED, 0xFF, 0xBF, 0xFF, 
	0x3A, 0x00, 0x1F, 0x00, 0xE2, 0xFF, 0xD6, 0xFF, 0xAD, 0xFF, 0xEE, 0xFF, 
	0xCD, 0xFF, 0x7F, 0x00, 0xDC, 0xFF, 0x45, 0x00, 0x64, 0x00, 0x0B, 0x00, 
	0xA6, 0xFF, 0xF5, 0xFF, 0xE0, 0xFF, 0x01, 0x00, 0xFD, 0xFF, 0x43, 0x00, 
	0x36, 0x00, 0xEE, 0xFF, 0x6C, 0x00, 0x06, 0x00, 0xF6, 0xFF, 0x0F, 0x00, 
	0xEE, 0xFF, 0x0A, 0x00, 0xED, 0xFF, 0xBD, 0xFF, 0xCA, 0xFF, 0x0B, 0x00, 
	0x09, 0x00, 0xED, 0xFF, 0x12, 0x00, 0xA6, 0xFF, 0xB1, 0xFF, 0x0F, 0x00, 
	0x1E, 0x00, 0x34, 0x00, 0xF6, 0xFF, 0x16, 0x00, 0xCF, 0xFF, 0xEF, 0xFF, 
	0x43, 0x00, 0x25, 0x00, 0x28, 0x00, 0x31, 0x00, 0xFE, 0xFF, 0xCA, 0xFF, 
	0x9C, 0xFF, 0x2D, 0x00, 0xE0, 0xFF, 0xDC, 0xFF, 0x03, 0x00, 0xEB, 0xFF, 
	0x05, 0x00, 0x26, 0x00, 0xCA, 0xFF, 0xF2, 0xFF, 0x04, 0x00, 0x1A, 0x00, 
	0xDD, 0xFF, 0xD9, 0xFF, 0xFA, 0xFF, 0x04, 0x00, 0x02, 0x00, 0x01, 0x00, 
	0x0B, 0x00, 0x03, 0x00, 0x06, 0x00, 0xFF, 0xFF, 0x07, 0x00, 0xFD, 0xFF, 
	0xF8, 0xFF, 0x01, 0x00, 0x00, 0x00, 0x09, 0x00, 0x03, 0x00, 0xFE, 0xFF, 
	0x07, 0x00, 0xFE, 0xFF, 0xFB, 0xFF, 0xFC, 0xFF, 0xFE, 0xFF, 0x09, 0x00, 
	0x06, 0x00, 0xFF, 0xFF, 0xFD, 0xFF, 0xFA, 0xFF, 0x00, 0x00, 0x01, 0x00, 
	0x2B, 0x00, 0xAD, 0xFF, 0xF9, 0xFF, 0x1B, 0x00, 0x1C, 0x00, 0xDB, 0xFF, 
	0x47, 0x00, 0xFC, 0xFF, 0xED, 0xFF, 0x1A, 0x00, 0xEE, 0xFF, 0xF6, 0xFF, 
	0xE4, 0xFF, 0xF4, 0xFF, 0x26, 0x00, 0x1D, 0x00, 0x1A, 0x00, 0xE0, 0xFF, 
	0x2B, 0x00, 0x67, 0x00, 0x1B, 0x00, 0xF9, 0xFF, 0x37, 0x00, 0xEC, 0xFF, 
	0xDA, 0xFF, 0xD5, 0xFF, 0xCB, 0xFF, 0x37, 0x00, 0xEB, 0xFF, 0xB8, 0xFF, 
	0x04, 0x00, 0x0B, 0x00, 0x25, 0x00, 0xD1, 0xFF, 0xF2, 0xFF, 0xBB, 0xFF, 
	0x08, 0x00, 0xE9, 0xFF, 0xF2, 0xFF, 0x09, 0x00, 0x3F, 0x00, 0xF5, 0xFF, 
	0xB5, 0xFF, 0xDF, 0xFF, 0xA3, 0xFF, 0xD8, 0xFF, 0x4B, 0x00, 0xF0, 0xFF, 
	0xC8, 0xFF, 0xD9, 0xFF, 0x07, 0x00, 0xD0, 0xFF, 0x28, 0x00, 0x08, 0x00, 
	0xE0, 0xFF, 0xEC, 0xFF, 0xB5, 0xFF, 0x17, 0x00, 0x1A, 0x00, 0x12, 0x00, 
	0xE4, 0xFF, 0x24, 0x00, 0xDA, 0xFF, 0xDC, 0xFF, 0x0E, 0x00, 0x2C, 0x00, 
	0x36, 0x00, 0xD8, 0xFF, 0x0A, 0x00, 0xB7, 0xFF, 0xED, 0xFF, 0x27, 0x00, 
	0xFE, 0xFF, 0xC2, 0xFF, 0x16, 0x00, 0xF4, 0xFF, 0xD1, 0xFF, 0xEF, 0xFF, 
	0xA0, 0xFF, 0xEE, 0xFF, 0xFF, 0xFF, 0x3E, 0x00, 0x02, 0x00, 0xCB, 0xFF, 
	0xB2, 0xFF, 0xE9, 0xFF, 0xEA, 0xFF, 0x26, 0x00, 0x0F, 0x00, 0x1A, 0x00, 
	0x4E, 0x00, 0xF8, 0xFF, 0xF1, 0xFF, 0x34, 0x00, 0xC7, 0xFF, 0xDE, 0xFF, 
	0xFC, 0xFF, 0xFB, 0xFF, 0xB5, 0xFF, 0xB6, 0xFF, 0x49, 0x00, 0x2E, 0x00, 
	0x01, 0x00, 0xEE, 0xFF, 0x2D, 0x00, 0x5B, 0x00, 0xF2, 0xFF, 0xEC, 0xFF, 
	0xBA, 0xFF, 0xFF, 0xFF, 0xE0, 0xFF, 0x16, 0x00, 0x3C, 0x00, 0xC6, 0xFF, 
	0x1C, 0x00, 0x43, 0x00, 0xF2, 0xFF, 0xD9, 0xFF, 0x65, 0x00, 0x06, 0x00, 
	0xAB, 0xFF, 0x0D, 0x00, 0xD1, 0xFF, 0x10, 0x00, 0x06, 0x00, 0x05, 0x00, 
	0x71, 0x00, 0xFA, 0xFF, 0x0D, 0x00, 0x13, 0x00, 0x11, 0x00, 0xF6, 0xFF, 
